{
  "0": "\u0000",
  "1": "\u0001",
  "2": "\u0002",
  "3": "\u0003",
  "4": "\u0004",
  "5": "\u0005",
  "6": "\u0006",
  "7": "\u0007",
  "8": "\b",
  "9": "\t",
  "10": "\n",
  "11": "\u000b",
  "12": "\f",
  "13": "\r",
  "14": "\u000e",
  "15": "\u000f",
  "16": "\u0010",
  "17": "\u0011",
  "18": "\u0012",
  "19": "\u0013",
  "20": "\u0014",
  "21": "\u0015",
  "22": "\u0016",
  "23": "\u0017",
  "24": "\u0018",
  "25": "\u0019",
  "26": "\u001a",
  "27": "\u001b",
  "28": "\u001c",
  "29": "\u001d",
  "30": "\u001e",
  "31": "\u001f",
  "32": " ",
  "33": "!",
  "34": "\"",
  "35": "#",
  "36": "$",
  "37": "%",
  "38": "&",
  "39": "'",
  "40": "(",
  "41": ")",
  "42": "*",
  "43": "+",
  "44": ",",
  "45": "-",
  "46": ".",
  "47": "/",
  "48": "0",
  "49": "1",
  "50": "2",
  "51": "3",
  "52": "4",
  "53": "5",
  "54": "6",
  "55": "7",
  "56": "8",
  "57": "9",
  "58": ":",
  "59": ";",
  "60": "<",
  "61": "=",
  "62": ">",
  "63": "?",
  "64": "@",
  "65": "A",
  "66": "B",
  "67": "C",
  "68": "D",
  "69": "E",
  "70": "F",
  "71": "G",
  "72": "H",
  "73": "I",
  "74": "J",
  "75": "K",
  "76": "L",
  "77": "M",
  "78": "N",
  "79": "O",
  "80": "P",
  "81": "Q",
  "82": "R",
  "83": "S",
  "84": "T",
  "85": "U",
  "86": "V",
  "87": "W",
  "88": "X",
  "89": "Y",
  "90": "Z",
  "91": "[",
  "92": "\\",
  "93": "]",
  "94": "^",
  "95": "_",
  "96": "`",
  "97": "a",
  "98": "b",
  "99": "c",
  "100": "d",
  "101": "e",
  "102": "f",
  "103": "g",
  "104": "h",
  "105": "i",
  "106": "j",
  "107": "k",
  "108": "l",
  "109": "m",
  "110": "n",
  "111": "o",
  "112": "p",
  "113": "q",
  "114": "r",
  "115": "s",
  "116": "t",
  "117": "u",
  "118": "v",
  "119": "w",
  "120": "x",
  "121": "y",
  "122": "z",
  "123": "{",
  "124": "|",
  "125": "}",
  "126": "~",
  "127": "",
  "128": "\\x80",
  "129": "\\x81",
  "130": "\\x82",
  "131": "\\x83",
  "132": "\\x84",
  "133": "\\x85",
  "134": "\\x86",
  "135": "\\x87",
  "136": "\\x88",
  "137": "\\x89",
  "138": "\\x8a",
  "139": "\\x8b",
  "140": "\\x8c",
  "141": "\\x8d",
  "142": "\\x8e",
  "143": "\\x8f",
  "144": "\\x90",
  "145": "\\x91",
  "146": "\\x92",
  "147": "\\x93",
  "148": "\\x94",
  "149": "\\x95",
  "150": "\\x96",
  "151": "\\x97",
  "152": "\\x98",
  "153": "\\x99",
  "154": "\\x9a",
  "155": "\\x9b",
  "156": "\\x9c",
  "157": "\\x9d",
  "158": "\\x9e",
  "159": "\\x9f",
  "160": "\\xa0",
  "161": "\\xa1",
  "162": "\\xa2",
  "163": "\\xa3",
  "164": "\\xa4",
  "165": "\\xa5",
  "166": "\\xa6",
  "167": "\\xa7",
  "168": "\\xa8",
  "169": "\\xa9",
  "170": "\\xaa",
  "171": "\\xab",
  "172": "\\xac",
  "173": "\\xad",
  "174": "\\xae",
  "175": "\\xaf",
  "176": "\\xb0",
  "177": "\\xb1",
  "178": "\\xb2",
  "179": "\\xb3",
  "180": "\\xb4",
  "181": "\\xb5",
  "182": "\\xb6",
  "183": "\\xb7",
  "184": "\\xb8",
  "185": "\\xb9",
  "186": "\\xba",
  "187": "\\xbb",
  "188": "\\xbc",
  "189": "\\xbd",
  "190": "\\xbe",
  "191": "\\xbf",
  "192": "\\xc0",
  "193": "\\xc1",
  "194": "\\xc2",
  "195": "\\xc3",
  "196": "\\xc4",
  "197": "\\xc5",
  "198": "\\xc6",
  "199": "\\xc7",
  "200": "\\xc8",
  "201": "\\xc9",
  "202": "\\xca",
  "203": "\\xcb",
  "204": "\\xcc",
  "205": "\\xcd",
  "206": "\\xce",
  "207": "\\xcf",
  "208": "\\xd0",
  "209": "\\xd1",
  "210": "\\xd2",
  "211": "\\xd3",
  "212": "\\xd4",
  "213": "\\xd5",
  "214": "\\xd6",
  "215": "\\xd7",
  "216": "\\xd8",
  "217": "\\xd9",
  "218": "\\xda",
  "219": "\\xdb",
  "220": "\\xdc",
  "221": "\\xdd",
  "222": "\\xde",
  "223": "\\xdf",
  "224": "\\xe0",
  "225": "\\xe1",
  "226": "\\xe2",
  "227": "\\xe3",
  "228": "\\xe4",
  "229": "\\xe5",
  "230": "\\xe6",
  "231": "\\xe7",
  "232": "\\xe8",
  "233": "\\xe9",
  "234": "\\xea",
  "235": "\\xeb",
  "236": "\\xec",
  "237": "\\xed",
  "238": "\\xee",
  "239": "\\xef",
  "240": "\\xf0",
  "241": "\\xf1",
  "242": "\\xf2",
  "243": "\\xf3",
  "244": "\\xf4",
  "245": "\\xf5",
  "246": "\\xf6",
  "247": "\\xf7",
  "248": "\\xf8",
  "249": "\\xf9",
  "250": "\\xfa",
  "251": "\\xfb",
  "252": "\\xfc",
  "253": "\\xfd",
  "254": "\\xfe",
  "255": "\\xff",
  "256": "<|endoftext|>",
  "257": " t",
  "258": "he",
  "259": " a",
  "260": " s",
  "261": " w",
  "262": "nd",
  "263": " the",
  "264": "ed",
  "265": " b",
  "266": " to",
  "267": " and",
  "268": " h",
  "269": " f",
  "270": "in",
  "271": " T",
  "272": " wa",
  "273": "re",
  "274": "it",
  "275": "ou",
  "276": " l",
  "277": " d",
  "278": " c",
  "279": " p",
  "280": "ay",
  "281": " m",
  "282": "er",
  "283": " was",
  "284": "om",
  "285": " The",
  "286": " he",
  "287": "is",
  "288": "ar",
  "289": " n",
  "290": "im",
  "291": "on",
  "292": " sa",
  "293": "id",
  "294": "ll",
  "295": " ha",
  "296": " g",
  "297": "at",
  "298": " S",
  "299": "ing",
  "300": "ot",
  "301": "en",
  "302": "an",
  "303": "le",
  "304": "or",
  "305": "ir",
  "306": "am",
  "307": "et",
  "308": " H",
  "309": " it",
  "310": " th",
  "311": "ig",
  "312": " They",
  "313": " in",
  "314": "il",
  "315": " pl",
  "316": " He",
  "317": " \"",
  "318": "ow",
  "319": "ver",
  "320": "ri",
  "321": "ut",
  "322": " be",
  "323": " u",
  "324": " said",
  "325": " play",
  "326": "ith",
  "327": " day",
  "328": " with",
  "329": "pp",
  "330": "On",
  "331": " o",
  "332": " y",
  "333": "oo",
  "334": "ked",
  "335": " r",
  "336": " her",
  "337": "ce",
  "338": " I",
  "339": " She",
  "340": "ld",
  "341": " Tim",
  "342": " his",
  "343": " st",
  "344": "ke",
  "345": " e",
  "346": " big",
  "347": "nt",
  "348": "ck",
  "349": " you",
  "350": "very",
  "351": "st",
  "352": "ve",
  "353": "end",
  "354": " on",
  "355": "un",
  "356": " happ",
  "357": "riend",
  "358": " friend",
  "359": "all",
  "360": "ily",
  "361": " L",
  "362": " they",
  "363": " we",
  "364": " had",
  "365": " not",
  "366": " li",
  "367": " up",
  "368": "her",
  "369": " want",
  "370": " of",
  "371": "ad",
  "372": "itt",
  "373": "se",
  "374": " B",
  "375": " do",
  "376": " happy",
  "377": "ent",
  "378": " very",
  "379": " M",
  "380": "es",
  "381": " that",
  "382": " saw",
  "383": "One",
  "384": "'s",
  "385": "ould",
  "386": " mom",
  "387": " for",
  "388": " sh",
  "389": "ittle",
  "390": " little",
  "391": " so",
  "392": " she",
  "393": "ch",
  "394": "ime",
  "395": " ne",
  "396": " nam",
  "397": ".\"",
  "398": " time",
  "399": " k",
  "400": "ound",
  "401": " there",
  "402": " named",
  "403": " sm",
  "404": " bo",
  "405": " were",
  "406": " Lily",
  "407": " wanted",
  "408": " but",
  "409": "out",
  "410": "The",
  "411": " friends",
  "412": "ved",
  "413": "!\"",
  "414": "ht",
  "415": " Tom",
  "416": "ird",
  "417": "el",
  "418": " bird",
  "419": "al",
  "420": " an",
  "421": "ake",
  "422": " too",
  "423": "ome",
  "424": " It",
  "425": "ug",
  "426": "ide",
  "427": " went",
  "428": " wh",
  "429": " hel",
  "430": "Once",
  "431": " is",
  "432": " all",
  "433": " help",
  "434": "ue",
  "435": " loo",
  "436": " lo",
  "437": "ter",
  "438": " A",
  "439": " upon",
  "440": "ry",
  "441": "ore",
  "442": "ind",
  "443": " fun",
  "444": "get",
  "445": " toy",
  "446": "ill",
  "447": "ame",
  "448": " as",
  "449": " at",
  "450": "ra",
  "451": " j",
  "452": " did",
  "453": "gether",
  "454": " re",
  "455": "ur",
  "456": " se",
  "457": " together",
  "458": "ack",
  "459": " cat",
  "460": "ly",
  "461": " tre",
  "462": "ood",
  "463": "ic",
  "464": "ted",
  "465": " dog",
  "466": " could",
  "467": " can",
  "468": " their",
  "469": "ard",
  "470": "ec",
  "471": "ark",
  "472": " gir",
  "473": " played",
  "474": " him",
  "475": " ball",
  "476": "?\"",
  "477": " girl",
  "478": "way",
  "479": " ro",
  "480": " go",
  "481": "hed",
  "482": "my",
  "483": " are",
  "484": " out",
  "485": " le",
  "486": " fr",
  "487": "ain",
  "488": " kn",
  "489": "hen",
  "490": " them",
  "491": "um",
  "492": "'t",
  "493": "ax",
  "494": " sad",
  "495": "ul",
  "496": " boy",
  "497": " tree",
  "498": "other",
  "499": " have",
  "500": " man",
  "501": " cl",
  "502": " loved",
  "503": " looked",
  "504": "oug",
  "505": " found",
  "506": " sp",
  "507": " star",
  "508": " Sue",
  "509": "one",
  "510": "hing",
  "511": " sc",
  "512": " back",
  "513": "own",
  "514": " Max",
  "515": "are",
  "516": " like",
  "517": "ful",
  "518": "side",
  "519": " me",
  "520": " bec",
  "521": " park",
  "522": "ight",
  "523": "ong",
  "524": " car",
  "525": "op",
  "526": "elt",
  "527": " One",
  "528": " liked",
  "529": " would",
  "530": " make",
  "531": "round",
  "532": " la",
  "533": " fa",
  "534": " felt",
  "535": "You",
  "536": " W",
  "537": "ell",
  "538": " see",
  "539": " But",
  "540": "omet",
  "541": " asked",
  "542": "ag",
  "543": " new",
  "544": " no",
  "545": "ice",
  "546": " Sam",
  "547": "ouse",
  "548": " started",
  "549": "ared",
  "550": " came",
  "551": " Ben",
  "552": " al",
  "553": " other",
  "554": "ought",
  "555": "iled",
  "556": " somet",
  "557": " ag",
  "558": " good",
  "559": " small",
  "560": "ss",
  "561": " br",
  "562": " smiled",
  "563": " say",
  "564": "ried",
  "565": "ade",
  "566": "ings",
  "567": "ob",
  "568": "pot",
  "569": " wor",
  "570": " find",
  "571": " ex",
  "572": "ia",
  "573": " away",
  "574": "ty",
  "575": " put",
  "576": " what",
  "577": " something",
  "578": " co",
  "579": " from",
  "580": " made",
  "581": " thought",
  "582": "ened",
  "583": " home",
  "584": " playing",
  "585": "ook",
  "586": " every",
  "587": " wal",
  "588": " mu",
  "589": "uc",
  "590": "ach",
  "591": "arn",
  "592": " Spot",
  "593": " ran",
  "594": "ile",
  "595": " F",
  "596": "ie",
  "597": " J",
  "598": "ave",
  "599": " again",
  "600": " some",
  "601": " laug",
  "602": "dd",
  "603": " house",
  "604": " down",
  "605": " fl",
  "606": "king",
  "607": " took",
  "608": " scared",
  "609": " pr",
  "610": "ny",
  "611": "ure",
  "612": " toys",
  "613": " learn",
  "614": " You",
  "615": "if",
  "616": " will",
  "617": " box",
  "618": "ick",
  "619": "ret",
  "620": "ab",
  "621": "ep",
  "622": " my",
  "623": " around",
  "624": " things",
  "625": " your",
  "626": "oud",
  "627": " bl",
  "628": "uck",
  "629": " when",
  "630": "ish",
  "631": " lived",
  "632": " fe",
  "633": " then",
  "634": " sun",
  "635": "as",
  "636": " sw",
  "637": ",\"",
  "638": " ch",
  "639": "us",
  "640": "pped",
  "641": " ab",
  "642": " Mia",
  "643": "ank",
  "644": " get",
  "645": "ucy",
  "646": "Tim",
  "647": "ump",
  "648": "Th",
  "649": " lot",
  "650": "ist",
  "651": "oth",
  "652": " tried",
  "653": "ap",
  "654": " know",
  "655": " says",
  "656": " got",
  "657": "ited",
  "658": " who",
  "659": " kne",
  "660": "ust",
  "661": " many",
  "662": "nder",
  "663": " int",
  "664": " about",
  "665": "Lily",
  "666": " pret",
  "667": " dec",
  "668": " any",
  "669": " red",
  "670": " D",
  "671": "ive",
  "672": " knew",
  "673": "ace",
  "674": "ous",
  "675": " more",
  "676": "ise",
  "677": " care",
  "678": "ally",
  "679": " pic",
  "680": "au",
  "681": "qu",
  "682": " hug",
  "683": " Lucy",
  "684": " learned",
  "685": " po",
  "686": " water",
  "687": "fter",
  "688": " v",
  "689": " became",
  "690": " best",
  "691": "ause",
  "692": " op",
  "693": " gre",
  "694": " exc",
  "695": "urp",
  "696": "ways",
  "697": "\\xe2\\x80",
  "698": " outside",
  "699": " laughed",
  "700": " look",
  "701": " always",
  "702": " decid",
  "703": " show",
  "704": " un",
  "705": "ant",
  "706": " Bob",
  "707": " room",
  "708": "fe",
  "709": " decided",
  "710": " ho",
  "711": " because",
  "712": " So",
  "713": " into",
  "714": " eat",
  "715": "ite",
  "716": " jump",
  "717": " And",
  "718": " pe",
  "719": " both",
  "720": "ers",
  "721": " Mom",
  "722": " dad",
  "723": "They",
  "724": "udd",
  "725": " ke",
  "726": " one",
  "727": "nn",
  "728": " this",
  "729": " excited",
  "730": " fast",
  "731": " nice",
  "732": " E",
  "733": " feel",
  "734": "Tom",
  "735": "Yes",
  "736": " run",
  "737": " long",
  "738": " told",
  "739": " sk",
  "740": " am",
  "741": "urpr",
  "742": "our",
  "743": " inside",
  "744": "ull",
  "745": " tr",
  "746": " surpr",
  "747": " mo",
  "748": "ink",
  "749": " pretty",
  "750": "iny",
  "751": " sor",
  "752": "Wh",
  "753": " take",
  "754": "og",
  "755": " sl",
  "756": " each",
  "757": " gave",
  "758": " much",
  "759": " gra",
  "760": "lew",
  "761": "nna",
  "762": " rock",
  "763": " how",
  "764": " str",
  "765": "ara",
  "766": "imal",
  "767": " animal",
  "768": "ged",
  "769": " need",
  "770": " than",
  "771": "But",
  "772": "ven",
  "773": "etter",
  "774": " tow",
  "775": " or",
  "776": " C",
  "777": " under",
  "778": "ess",
  "779": " old",
  "780": " sorry",
  "781": "ge",
  "782": "ised",
  "783": "ro",
  "784": "urt",
  "785": " cle",
  "786": " fish",
  "787": " walked",
  "788": " clo",
  "789": "and",
  "790": " bear",
  "791": "ft",
  "792": "ase",
  "793": "ast",
  "794": " hand",
  "795": "urn",
  "796": " We",
  "797": " kind",
  "798": " His",
  "799": " te",
  "800": "here",
  "801": " happened",
  "802": " just",
  "803": " flow",
  "804": " food",
  "805": " list",
  "806": " didn",
  "807": " animals",
  "808": " hig",
  "809": "pl",
  "810": " near",
  "811": " wat",
  "812": " ide",
  "813": " try",
  "814": "ched",
  "815": " sky",
  "816": "ine",
  "817": " sn",
  "818": "ving",
  "819": " fi",
  "820": "rom",
  "821": " us",
  "822": " idea",
  "823": " better",
  "824": " Amy",
  "825": " bug",
  "826": " heard",
  "827": "gry",
  "828": " its",
  "829": " tw",
  "830": " let",
  "831": "pec",
  "832": "ate",
  "833": "able",
  "834": "ff",
  "835": " en",
  "836": " careful",
  "837": " share",
  "838": "ex",
  "839": " if",
  "840": "Thank",
  "841": "Mom",
  "842": " fly",
  "843": " stor",
  "844": "ial",
  "845": " flew",
  "846": "more",
  "847": " anymore",
  "848": " Th",
  "849": " spec",
  "850": " special",
  "851": "ion",
  "852": " com",
  "853": " lots",
  "854": " never",
  "855": " by",
  "856": "lf",
  "857": "ream",
  "858": " dan",
  "859": " bu",
  "860": " fo",
  "861": " wind",
  "862": " don",
  "863": " tal",
  "864": " clean",
  "865": "ort",
  "866": " gr",
  "867": " love",
  "868": "rm",
  "869": "ber",
  "870": " end",
  "871": "\n\n",
  "872": " Then",
  "873": "ople",
  "874": " even",
  "875": " mag",
  "876": " hard",
  "877": " shiny",
  "878": "udden",
  "879": " fore",
  "880": " over",
  "881": " cake",
  "882": "ak",
  "883": " book",
  "884": " col",
  "885": " turn",
  "886": " fam",
  "887": " bad",
  "888": " safe",
  "889": " after",
  "890": "ady",
  "891": " Anna",
  "892": "uddenly",
  "893": " people",
  "894": " proud",
  "895": " Every",
  "896": " surprised",
  "897": "pected",
  "898": "Let",
  "899": " high",
  "900": " cu",
  "901": " hurt",
  "902": " come",
  "903": "imb",
  "904": "arden",
  "905": " door",
  "906": " garden",
  "907": "bb",
  "908": " ground",
  "909": " opened",
  "910": " picked",
  "911": " loud",
  "912": " climb",
  "913": "expected",
  "914": " unexpected",
  "915": " gl",
  "916": " che",
  "917": "ild",
  "918": " im",
  "919": "As",
  "920": " give",
  "921": " way",
  "922": "ail",
  "923": "'m",
  "924": " thanked",
  "925": " color",
  "926": " blue",
  "927": " still",
  "928": " ever",
  "929": " hugged",
  "930": " From",
  "931": " call",
  "932": " far",
  "933": "ip",
  "934": " Her",
  "935": " Sara",
  "936": " When",
  "937": "No",
  "938": " off",
  "939": " magic",
  "940": "iz",
  "941": "ough",
  "942": "age",
  "943": "ummy",
  "944": " K",
  "945": " jumped",
  "946": " should",
  "947": " family",
  "948": " par",
  "949": "ool",
  "950": " kid",
  "951": " smile",
  "952": "hes",
  "953": "uff",
  "954": " place",
  "955": "kay",
  "956": " walk",
  "957": " now",
  "958": "ct",
  "959": " In",
  "960": " great",
  "961": "em",
  "962": "ture",
  "963": " qu",
  "964": "les",
  "965": " strong",
  "966": " stay",
  "967": " unt",
  "968": " sto",
  "969": "aut",
  "970": " forest",
  "971": "ane",
  "972": " bra",
  "973": "itty",
  "974": " P",
  "975": " frog",
  "976": " bro",
  "977": " until",
  "978": "oon",
  "979": " beaut",
  "980": "dy",
  "981": " squ",
  "982": " stick",
  "983": "xt",
  "984": " next",
  "985": " boat",
  "986": "lease",
  "987": "ning",
  "988": " happily",
  "989": " listen",
  "990": "aking",
  "991": " kids",
  "992": " tra",
  "993": "ies",
  "994": "iful",
  "995": " beautiful",
  "996": " app",
  "997": "th",
  "998": " helped",
  "999": " dra",
  "1000": " showed",
  "1001": " clos",
  "1002": "be",
  "1003": " imp",
  "1004": " story",
  "1005": "unny",
  "1006": "oy",
  "1007": " while",
  "1008": " town",
  "1009": "rel",
  "1010": "pt",
  "1011": " rain",
  "1012": "ress",
  "1013": " picture",
  "1014": " being",
  "1015": " rem",
  "1016": " everyone",
  "1017": "It",
  "1018": "ary",
  "1019": "ree",
  "1020": " mor",
  "1021": " hat",
  "1022": " called",
  "1023": " met",
  "1024": " stopped",
  "1025": " ad",
  "1026": " game",
  "1027": "Now",
  "1028": "He",
  "1029": "Can",
  "1030": " angry",
  "1031": "ger",
  "1032": "uffy",
  "1033": " open",
  "1034": " wo",
  "1035": " truck",
  "1036": " keep",
  "1037": " soft",
  "1038": "When",
  "1039": " cry",
  "1040": " yummy",
  "1041": " lost",
  "1042": " bed",
  "1043": " Let",
  "1044": " Sally",
  "1045": " warm",
  "1046": "by",
  "1047": "vent",
  "1048": " brave",
  "1049": " mouse",
  "1050": " Wh",
  "1051": " ate",
  "1052": " Kitty",
  "1053": "ished",
  "1054": " de",
  "1055": "fore",
  "1056": " doll",
  "1057": "so",
  "1058": " couldn",
  "1059": " watch",
  "1060": " leave",
  "1061": " also",
  "1062": "dded",
  "1063": " fell",
  "1064": " green",
  "1065": " face",
  "1066": " two",
  "1067": "gan",
  "1068": "iss",
  "1069": " flowers",
  "1070": "bit",
  "1071": "What",
  "1072": " R",
  "1073": "ble",
  "1074": " noise",
  "1075": "abbit",
  "1076": "irst",
  "1077": "owl",
  "1078": " where",
  "1079": "az",
  "1080": "ock",
  "1081": " soon",
  "1082": "self",
  "1083": " slide",
  "1084": " rabbit",
  "1085": " hole",
  "1086": "luffy",
  "1087": " before",
  "1088": "irrel",
  "1089": " pus",
  "1090": "ired",
  "1091": " sat",
  "1092": "illy",
  "1093": " hear",
  "1094": " use",
  "1095": "”",
  "1096": "Hi",
  "1097": " pa",
  "1098": " kept",
  "1099": "“",
  "1100": "That",
  "1101": " squirrel",
  "1102": "ear",
  "1103": "Then",
  "1104": "ma",
  "1105": " nodded",
  "1106": " expl",
  "1107": " store",
  "1108": " cook",
  "1109": " hands",
  "1110": "Look",
  "1111": " birds",
  "1112": " pain",
  "1113": " going",
  "1114": " funny",
  "1115": " having",
  "1116": "day",
  "1117": " sing",
  "1118": "aybe",
  "1119": "uch",
  "1120": " ey",
  "1121": "aug",
  "1122": " catch",
  "1123": "aught",
  "1124": " Can",
  "1125": " Fluffy",
  "1126": "uit",
  "1127": " yell",
  "1128": " think",
  "1129": "leep",
  "1130": " cra",
  "1131": " fin",
  "1132": "Ben",
  "1133": " bre",
  "1134": " fix",
  "1135": " tired",
  "1136": " bunny",
  "1137": " used",
  "1138": " looking",
  "1139": " bus",
  "1140": "ange",
  "1141": "air",
  "1142": " work",
  "1143": " wr",
  "1144": " our",
  "1145": " pull",
  "1146": "We",
  "1147": " thr",
  "1148": "thing",
  "1149": " Now",
  "1150": " wait",
  "1151": " kit",
  "1152": " sound",
  "1153": "ting",
  "1154": " jo",
  "1155": " has",
  "1156": " G",
  "1157": " mean",
  "1158": " pond",
  "1159": "ember",
  "1160": " beh",
  "1161": " dr",
  "1162": " sunny",
  "1163": "led",
  "1164": " others",
  "1165": " ask",
  "1166": "ng",
  "1167": "chen",
  "1168": " kitchen",
  "1169": " talk",
  "1170": " flo",
  "1171": " dif",
  "1172": "rew",
  "1173": " pie",
  "1174": " Jo",
  "1175": " head",
  "1176": " real",
  "1177": " first",
  "1178": " tri",
  "1179": " mommy",
  "1180": " eyes",
  "1181": "ello",
  "1182": " import",
  "1183": "Hello",
  "1184": " fav",
  "1185": "ath",
  "1186": "joy",
  "1187": " z",
  "1188": " remember",
  "1189": " right",
  "1190": " flower",
  "1191": " con",
  "1192": " mess",
  "1193": " party",
  "1194": " cold",
  "1195": " Do",
  "1196": " vo",
  "1197": " swe",
  "1198": "ious",
  "1199": " sand",
  "1200": " “",
  "1201": "ac",
  "1202": "orn",
  "1203": " race",
  "1204": " curi",
  "1205": "imes",
  "1206": " important",
  "1207": " duck",
  "1208": " moral",
  "1209": " shared",
  "1210": "zy",
  "1211": "ount",
  "1212": " Jack",
  "1213": " ice",
  "1214": " okay",
  "1215": " advent",
  "1216": " worked",
  "1217": "llow",
  "1218": "At",
  "1219": " enjoy",
  "1220": " dress",
  "1221": " bright",
  "1222": " making",
  "1223": " curious",
  "1224": " own",
  "1225": "ded",
  "1226": " tall",
  "1227": " dir",
  "1228": " hop",
  "1229": "reed",
  "1230": " hid",
  "1231": " favor",
  "1232": " ri",
  "1233": "hn",
  "1234": " sleep",
  "1235": " dis",
  "1236": "Wow",
  "1237": " favorite",
  "1238": " thing",
  "1239": " began",
  "1240": " mon",
  "1241": " bag",
  "1242": " hill",
  "1243": "Don",
  "1244": " cla",
  "1245": " draw",
  "1246": " rest",
  "1247": " here",
  "1248": " yard",
  "1249": " tell",
  "1250": " Fin",
  "1251": "ster",
  "1252": " watched",
  "1253": "que",
  "1254": " follow",
  "1255": " move",
  "1256": " bel",
  "1257": "ect",
  "1258": " cut",
  "1259": " night",
  "1260": " agreed",
  "1261": " pick",
  "1262": "co",
  "1263": " block",
  "1264": " hun",
  "1265": "aper",
  "1266": "lly",
  "1267": " stop",
  "1268": " behind",
  "1269": " This",
  "1270": " surprise",
  "1271": "ied",
  "1272": " sho",
  "1273": " hot",
  "1274": "After",
  "1275": " table",
  "1276": " grass",
  "1277": " worry",
  "1278": " dark",
  "1279": " trees",
  "1280": " voice",
  "1281": " walking",
  "1282": "ede",
  "1283": "fere",
  "1284": " floor",
  "1285": " farm",
  "1286": " lion",
  "1287": " top",
  "1288": " differe",
  "1289": " please",
  "1290": " ru",
  "1291": " song",
  "1292": " butter",
  "1293": " tail",
  "1294": " sweet",
  "1295": "Max",
  "1296": " shout",
  "1297": " colors",
  "1298": " read",
  "1299": " Dad",
  "1300": " lady",
  "1301": " forg",
  "1302": "isy",
  "1303": " leaves",
  "1304": " closer",
  "1305": "ign",
  "1306": " cars",
  "1307": " turned",
  "1308": " needed",
  "1309": " tast",
  "1310": "Why",
  "1311": "aring",
  "1312": " wood",
  "1313": " cried",
  "1314": " different",
  "1315": " laugh",
  "1316": " del",
  "1317": " piece",
  "1318": "’",
  "1319": "ered",
  "1320": " Mr",
  "1321": " roll",
  "1322": " adventure",
  "1323": " fire",
  "1324": " does",
  "1325": "ike",
  "1326": " cr",
  "1327": " hungry",
  "1328": " hair",
  "1329": " Suddenly",
  "1330": " paper",
  "1331": " feeling",
  "1332": " yellow",
  "1333": " full",
  "1334": " prin",
  "1335": "bo",
  "1336": "Sue",
  "1337": " touch",
  "1338": " As",
  "1339": "Anna",
  "1340": "Sam",
  "1341": " wet",
  "1342": " friendly",
  "1343": " per",
  "1344": "oom",
  "1345": "ken",
  "1346": "cked",
  "1347": "ached",
  "1348": " swing",
  "1349": " fruit",
  "1350": "ient",
  "1351": " broken",
  "1352": " ready",
  "1353": "bye",
  "1354": "ppy",
  "1355": " prom",
  "1356": " That",
  "1357": " another",
  "1358": " light",
  "1359": " pretend",
  "1360": " dance",
  "1361": "ater",
  "1362": " climbed",
  "1363": "where",
  "1364": " listened",
  "1365": " Bobo",
  "1366": " danc",
  "1367": " running",
  "1368": " only",
  "1369": " plan",
  "1370": " gone",
  "1371": " swim",
  "1372": "bbed",
  "1373": "Suddenly",
  "1374": "sh",
  "1375": " train",
  "1376": "ila",
  "1377": "ndma",
  "1378": "Sara",
  "1379": " Jane",
  "1380": " close",
  "1381": "av",
  "1382": "She",
  "1383": " smell",
  "1384": "So",
  "1385": "aby",
  "1386": " amaz",
  "1387": " hold",
  "1388": " blocks",
  "1389": " wonder",
  "1390": " Timmy",
  "1391": " repl",
  "1392": " All",
  "1393": " butterf",
  "1394": " sees",
  "1395": " reached",
  "1396": " wall",
  "1397": " pu",
  "1398": "oney",
  "1399": "red",
  "1400": " slow",
  "1401": " helping",
  "1402": " dri",
  "1403": " cream",
  "1404": " cool",
  "1405": " glad",
  "1406": "af",
  "1407": " ant",
  "1408": " less",
  "1409": "ging",
  "1410": " been",
  "1411": " goodbye",
  "1412": " ac",
  "1413": " fight",
  "1414": "ather",
  "1415": "Mia",
  "1416": " pushed",
  "1417": "iced",
  "1418": " fair",
  "1419": " must",
  "1420": " hide",
  "1421": " moment",
  "1422": " window",
  "1423": " O",
  "1424": " sit",
  "1425": " balloon",
  "1426": " snow",
  "1427": " child",
  "1428": " explore",
  "1429": " Everyone",
  "1430": " ar",
  "1431": " wished",
  "1432": " baby",
  "1433": " done",
  "1434": " wag",
  "1435": " ste",
  "1436": " buy",
  "1437": " stuck",
  "1438": " perf",
  "1439": " thank",
  "1440": " might",
  "1441": "icy",
  "1442": " name",
  "1443": "ized",
  "1444": " trying",
  "1445": " bit",
  "1446": " coming",
  "1447": " bar",
  "1448": " quick",
  "1449": " fall",
  "1450": " apple",
  "1451": "ash",
  "1452": " scary",
  "1453": " looks",
  "1454": " build",
  "1455": " doing",
  "1456": " win",
  "1457": " underst",
  "1458": "aisy",
  "1459": " din",
  "1460": " dream",
  "1461": " dirty",
  "1462": " held",
  "1463": "ames",
  "1464": " books",
  "1465": " mar",
  "1466": "In",
  "1467": " butterfly",
  "1468": " left",
  "1469": " shouted",
  "1470": " count",
  "1471": " replied",
  "1472": "avy",
  "1473": " reach",
  "1474": " tiny",
  "1475": " through",
  "1476": "ott",
  "1477": " dro",
  "1478": " why",
  "1479": " air",
  "1480": " bran",
  "1481": " land",
  "1482": "key",
  "1483": " three",
  "1484": " pulled",
  "1485": " spl",
  "1486": " grow",
  "1487": " treat",
  "1488": " brother",
  "1489": " wise",
  "1490": " woods",
  "1491": " sure",
  "1492": "'re",
  "1493": " chair",
  "1494": "ix",
  "1495": " mat",
  "1496": "ins",
  "1497": " seen",
  "1498": " pink",
  "1499": " clapped",
  "1500": " plant",
  "1501": "ely",
  "1502": " owl",
  "1503": " cup",
  "1504": "ield",
  "1505": " sometimes",
  "1506": "andy",
  "1507": " fill",
  "1508": " cloud",
  "1509": "ask",
  "1510": " swam",
  "1511": "outh",
  "1512": " job",
  "1513": " colorful",
  "1514": " remembered",
  "1515": " bigger",
  "1516": " nest",
  "1517": " mouth",
  "1518": "pe",
  "1519": "Okay",
  "1520": " lesson",
  "1521": " join",
  "1522": " cre",
  "1523": "ph",
  "1524": " There",
  "1525": "oup",
  "1526": "room",
  "1527": "art",
  "1528": " waved",
  "1529": "uddy",
  "1530": " grabbed",
  "1531": " stayed",
  "1532": "Oh",
  "1533": " paint",
  "1534": "This",
  "1535": " clot",
  "1536": " cont",
  "1537": " clothes",
  "1538": " ve",
  "1539": "ower",
  "1540": " After",
  "1541": " waited",
  "1542": " quickly",
  "1543": "cle",
  "1544": " word",
  "1545": " broke",
  "1546": "ucky",
  "1547": " games",
  "1548": " cast",
  "1549": " blew",
  "1550": " gent",
  "1551": " Mommy",
  "1552": " enjoyed",
  "1553": " noticed",
  "1554": "Jo",
  "1555": "ries",
  "1556": "ation",
  "1557": " set",
  "1558": " likes",
  "1559": " pictures",
  "1560": "ton",
  "1561": " sea",
  "1562": " heavy",
  "1563": " mus",
  "1564": " alone",
  "1565": " gif",
  "1566": "asure",
  "1567": " anything",
  "1568": " spot",
  "1569": " miss",
  "1570": " hopped",
  "1571": " world",
  "1572": " turns",
  "1573": "orm",
  "1574": " year",
  "1575": "der",
  "1576": " bott",
  "1577": " pat",
  "1578": " pot",
  "1579": " pen",
  "1580": "lc",
  "1581": "Her",
  "1582": " mix",
  "1583": " arm",
  "1584": " bike",
  "1585": " tight",
  "1586": " everywhere",
  "1587": " won",
  "1588": "Lucy",
  "1589": " tower",
  "1590": " threw",
  "1591": " himself",
  "1592": " followed",
  "1593": " Buddy",
  "1594": " ride",
  "1595": "man",
  "1596": "less",
  "1597": " ju",
  "1598": " je",
  "1599": "amp",
  "1600": "Bob",
  "1601": "ape",
  "1602": " comp",
  "1603": " key",
  "1604": "row",
  "1605": "\".",
  "1606": " white",
  "1607": "ctor",
  "1608": " wrong",
  "1609": "ini",
  "1610": " Daisy",
  "1611": " makes",
  "1612": " What",
  "1613": " break",
  "1614": " black",
  "1615": "arent",
  "1616": "ee",
  "1617": "ner",
  "1618": "Spot",
  "1619": "Do",
  "1620": " deep",
  "1621": "thy",
  "1622": " music",
  "1623": " pol",
  "1624": " delic",
  "1625": "nin",
  "1626": "cess",
  "1627": "ued",
  "1628": " forgot",
  "1629": " bee",
  "1630": " parent",
  "1631": " castle",
  "1632": "ves",
  "1633": "olly",
  "1634": " em",
  "1635": "ingin",
  "1636": "iet",
  "1637": " wear",
  "1638": " hit",
  "1639": "ister",
  "1640": "oun",
  "1641": " quiet",
  "1642": " round",
  "1643": "ance",
  "1644": " stu",
  "1645": " danced",
  "1646": " vis",
  "1647": "ully",
  "1648": " wants",
  "1649": " leaf",
  "1650": " monster",
  "1651": " nap",
  "1652": " John",
  "1653": " understand",
  "1654": " bowl",
  "1655": "os",
  "1656": "rot",
  "1657": "ren",
  "1658": " bor",
  "1659": " talked",
  "1660": "itten",
  "1661": " dry",
  "1662": " faster",
  "1663": " cookies",
  "1664": " brought",
  "1665": "fully",
  "1666": " leg",
  "1667": "ross",
  "1668": " mum",
  "1669": "zz",
  "1670": " side",
  "1671": "ts",
  "1672": "From",
  "1673": " sign",
  "1674": " Inside",
  "1675": " smart",
  "1676": "ang",
  "1677": "cy",
  "1678": " rocks",
  "1679": " someone",
  "1680": "His",
  "1681": " poin",
  "1682": " sec",
  "1683": " sharing",
  "1684": " fox",
  "1685": " well",
  "1686": " res",
  "1687": " rel",
  "1688": " happen",
  "1689": " button",
  "1690": " branch",
  "1691": " Lila",
  "1692": " really",
  "1693": " finished",
  "1694": "ence",
  "1695": "ards",
  "1696": " dinner",
  "1697": " sister",
  "1698": " flying",
  "1699": "eddy",
  "1700": " contin",
  "1701": " worried",
  "1702": " ele",
  "1703": " To",
  "1704": " visit",
  "1705": " Maybe",
  "1706": " beach",
  "1707": " que",
  "1708": " secret",
  "1709": " el",
  "1710": " Sarah",
  "1711": " king",
  "1712": "John",
  "1713": "gy",
  "1714": " today",
  "1715": " perfect",
  "1716": " river",
  "1717": " everything",
  "1718": " silly",
  "1719": " Joe",
  "1720": " danger",
  "1721": "ipp",
  "1722": " children",
  "1723": " gu",
  "1724": " Soon",
  "1725": " field",
  "1726": " filled",
  "1727": " fur",
  "1728": " else",
  "1729": " smiles",
  "1730": " welc",
  "1731": " At",
  "1732": " shin",
  "1733": " wish",
  "1734": " Em",
  "1735": "While",
  "1736": " sang",
  "1737": " gi",
  "1738": "ze",
  "1739": " pudd",
  "1740": " snack",
  "1741": " eating",
  "1742": " realized",
  "1743": " pieces",
  "1744": " promised",
  "1745": " spr",
  "1746": " pig",
  "1747": " free",
  "1748": " continued",
  "1749": " bite",
  "1750": "ead",
  "1751": " parents",
  "1752": " carefully",
  "1753": "ated",
  "1754": "itting",
  "1755": " ear",
  "1756": "Just",
  "1757": " jar",
  "1758": "Maybe",
  "1759": " cow",
  "1760": "Amy",
  "1761": " blank",
  "1762": " drag",
  "1763": "stead",
  "1764": " orange",
  "1765": " mud",
  "1766": " crying",
  "1767": " blanket",
  "1768": " enough",
  "1769": " rolled",
  "1770": "cket",
  "1771": " soup",
  "1772": " sail",
  "1773": " purp",
  "1774": "imi",
  "1775": " yes",
  "1776": "ale",
  "1777": " drink",
  "1778": " snake",
  "1779": "ses",
  "1780": " boun",
  "1781": " pet",
  "1782": " crab",
  "1783": " throw",
  "1784": " laughing",
  "1785": " fairy",
  "1786": " words",
  "1787": " amazing",
  "1788": " bath",
  "1789": "ich",
  "1790": " purple",
  "1791": " Z",
  "1792": " without",
  "1793": "ire",
  "1794": "ana",
  "1795": " bottle",
  "1796": "ord",
  "1797": " Billy",
  "1798": " gift",
  "1799": " grandma",
  "1800": "Fin",
  "1801": "used",
  "1802": "ons",
  "1803": " past",
  "1804": " money",
  "1805": "iver",
  "1806": "fort",
  "1807": " mail",
  "1808": " Gra",
  "1809": " barked",
  "1810": " wagged",
  "1811": " att",
  "1812": "chool",
  "1813": " monkey",
  "1814": " doctor",
  "1815": "unch",
  "1816": " brown",
  "1817": " moved",
  "1818": "ises",
  "1819": " asks",
  "1820": " getting",
  "1821": " closed",
  "1822": " whe",
  "1823": " welcome",
  "1824": " su",
  "1825": " candy",
  "1826": " school",
  "1827": " morning",
  "1828": " owner",
  "1829": " lon",
  "1830": " mother",
  "1831": " higher",
  "1832": " sitting",
  "1833": " treasure",
  "1834": ".”",
  "1835": " smo",
  "1836": "!”",
  "1837": "gg",
  "1838": " dangerous",
  "1839": " lonely",
  "1840": " Ch",
  "1841": " living",
  "1842": " apples",
  "1843": "ush",
  "1844": " shop",
  "1845": "ased",
  "1846": " strange",
  "1847": "vel",
  "1848": " shining",
  "1849": " road",
  "1850": "ere",
  "1851": " Tommy",
  "1852": " creat",
  "1853": "una",
  "1854": " paw",
  "1855": "ey",
  "1856": " ra",
  "1857": " shoes",
  "1858": " pre",
  "1859": "ible",
  "1860": " -",
  "1861": " stre",
  "1862": " talking",
  "1863": "althy",
  "1864": " caught",
  "1865": " egg",
  "1866": "ol",
  "1867": " pass",
  "1868": " lake",
  "1869": " runs",
  "1870": " buck",
  "1871": " letter",
  "1872": " wings",
  "1873": " chee",
  "1874": "fish",
  "1875": " mad",
  "1876": " fan",
  "1877": "asket",
  "1878": " basket",
  "1879": "ass",
  "1880": " dragon",
  "1881": "app",
  "1882": "est",
  "1883": "Mommy",
  "1884": "set",
  "1885": "cks",
  "1886": " stone",
  "1887": " thinks",
  "1888": " stand",
  "1889": " delicious",
  "1890": " nose",
  "1891": " puddle",
  "1892": " tom",
  "1893": " Bl",
  "1894": " Mimi",
  "1895": " belie",
  "1896": " sam",
  "1897": " farmer",
  "1898": " same",
  "1899": " years",
  "1900": "board",
  "1901": " teddy",
  "1902": " bat",
  "1903": "isk",
  "1904": "itch",
  "1905": " mine",
  "1906": " sear",
  "1907": " coat",
  "1908": "ches",
  "1909": "igh",
  "1910": " days",
  "1911": " bring",
  "1912": " gentle",
  "1913": " fit",
  "1914": " start",
  "1915": " finally",
  "1916": " whist",
  "1917": " cray",
  "1918": " scream",
  "1919": " kite",
  "1920": " pill",
  "1921": "phant",
  "1922": "arm",
  "1923": " vill",
  "1924": "gly",
  "1925": " cho",
  "1926": " singing",
  "1927": "ella",
  "1928": "sw",
  "1929": "ined",
  "1930": " tasty",
  "1931": " ph",
  "1932": " ben",
  "1933": " trou",
  "1934": " shell",
  "1935": " herself",
  "1936": " hoped",
  "1937": " answ",
  "1938": " wore",
  "1939": " swings",
  "1940": "sy",
  "1941": " hor",
  "1942": " belong",
  "1943": "Please",
  "1944": " push",
  "1945": " bush",
  "1946": "iskers",
  "1947": " carrot",
  "1948": " arri",
  "1949": "aughty",
  "1950": " teach",
  "1951": "bow",
  "1952": "ract",
  "1953": " naughty",
  "1954": " elephant",
  "1955": " dropped",
  "1956": " shap",
  "1957": " coll",
  "1958": "sc",
  "1959": " teac",
  "1960": "emy",
  "1961": " woke",
  "1962": "ball",
  "1963": " pile",
  "1964": " hiding",
  "1965": " cour",
  "1966": "isa",
  "1967": "erry",
  "1968": " touc",
  "1969": " puppy",
  "1970": "'ll",
  "1971": " seem",
  "1972": "ier",
  "1973": "llie",
  "1974": " min",
  "1975": " twins",
  "1976": "ama",
  "1977": " lunch",
  "1978": " bow",
  "1979": " sack",
  "1980": " pers",
  "1981": " course",
  "1982": " cheered",
  "1983": " shapes",
  "1984": " Jen",
  "1985": " grew",
  "1986": "fused",
  "1987": " rope",
  "1988": " village",
  "1989": "irth",
  "1990": "irthday",
  "1991": " juice",
  "1992": "ipped",
  "1993": " rainbow",
  "1994": " spin",
  "1995": "OK",
  "1996": " shook",
  "1997": "Jack",
  "1998": " spoon",
  "1999": " bench",
  "2000": " street",
  "2001": " fence",
  "2002": " Fred",
  "2003": " rob",
  "2004": " nut",
  "2005": " cheese",
  "2006": " prob",
  "2007": " cute",
  "2008": " touched",
  "2009": "idge",
  "2010": "col",
  "2011": " joy",
  "2012": " Whiskers",
  "2013": " arrived",
  "2014": " seed",
  "2015": " war",
  "2016": " teacher",
  "2017": " corn",
  "2018": "Good",
  "2019": " forever",
  "2020": " able",
  "2021": " bell",
  "2022": " few",
  "2023": " carry",
  "2024": " most",
  "2025": " plane",
  "2026": " Blue",
  "2027": "lem",
  "2028": " eas",
  "2029": " sounds",
  "2030": "lla",
  "2031": " des",
  "2032": " spo",
  "2033": " problem",
  "2034": " birthday",
  "2035": " power",
  "2036": " inc",
  "2037": "umb",
  "2038": "br",
  "2039": "\n ",
  "2040": " bugs",
  "2041": "ilk",
  "2042": " wonderful",
  "2043": " dolls",
  "2044": " busy",
  "2045": "ato",
  "2046": "irp",
  "2047": "eb",
  "2048": " wra",
  "2049": " promise",
  "2050": " Thank",
  "2051": " feels",
  "2052": " Emma",
  "2053": "eter",
  "2054": " bread",
  "2055": " neck",
  "2056": "Finally",
  "2057": " milk",
  "2058": " robot",
  "2059": " rec",
  "2060": "ian",
  "2061": " shy",
  "2062": "ountain",
  "2063": " kiss",
  "2064": "irt",
  "2065": " heart",
  "2066": " band",
  "2067": " cave",
  "2068": " pocket",
  "2069": "ub",
  "2070": " helpful",
  "2071": " slowly",
  "2072": " believe",
  "2073": " shake",
  "2074": "umpy",
  "2075": "eared",
  "2076": " patient",
  "2077": " pop",
  "2078": " ob",
  "2079": "arp",
  "2080": " live",
  "2081": " storm",
  "2082": " holding",
  "2083": " ugly",
  "2084": " towards",
  "2085": " upset",
  "2086": " turt",
  "2087": " shr",
  "2088": "adow",
  "2089": " cover",
  "2090": " kitten",
  "2091": "ost",
  "2092": " Remy",
  "2093": " sharp",
  "2094": " disapp",
  "2095": " stories",
  "2096": " suc",
  "2097": " honey",
  "2098": "ove",
  "2099": " Bella",
  "2100": "read",
  "2101": " noises",
  "2102": " Le",
  "2103": " cir",
  "2104": " balls",
  "2105": " spark",
  "2106": " gray",
  "2107": " dist",
  "2108": " dirt",
  "2109": "oggy",
  "2110": " late",
  "2111": " driver",
  "2112": "gle",
  "2113": " seat",
  "2114": " bucket",
  "2115": " meet",
  "2116": " young",
  "2117": " amazed",
  "2118": "alm",
  "2119": " turtle",
  "2120": " spid",
  "2121": " treats",
  "2122": " magical",
  "2123": "unt",
  "2124": "ator",
  "2125": " glow",
  "2126": " seek",
  "2127": " zoom",
  "2128": " lem",
  "2129": " sandw",
  "2130": "fortable",
  "2131": "umber",
  "2132": " trip",
  "2133": " mist",
  "2134": "ourn",
  "2135": " splas",
  "2136": " mark",
  "2137": " journ",
  "2138": " fold",
  "2139": " mach",
  "2140": " puzz",
  "2141": " part",
  "2142": "ling",
  "2143": " horse",
  "2144": " organ",
  "2145": " wild",
  "2146": " princess",
  "2147": "pping",
  "2148": "oose",
  "2149": " cookie",
  "2150": "Sure",
  "2151": "ens",
  "2152": " hugs",
  "2153": " Mark",
  "2154": " taking",
  "2155": " wheel",
  "2156": "epend",
  "2157": " cloth",
  "2158": " Lisa",
  "2159": " sug",
  "2160": " instead",
  "2161": " bubb",
  "2162": " string",
  "2163": " rud",
  "2164": " net",
  "2165": " drove",
  "2166": "iling",
  "2167": " rude",
  "2168": " huge",
  "2169": " Jim",
  "2170": " coin",
  "2171": " stars",
  "2172": " fighting",
  "2173": " spicy",
  "2174": " lucky",
  "2175": "Be",
  "2176": "Of",
  "2177": " craw",
  "2178": "Hey",
  "2179": " bone",
  "2180": " inv",
  "2181": " Grandma",
  "2182": "ors",
  "2183": "not",
  "2184": " ca",
  "2185": "pper",
  "2186": " forget",
  "2187": "up",
  "2188": " di",
  "2189": "aur",
  "2190": " sal",
  "2191": " Finally",
  "2192": " cannot",
  "2193": " whistle",
  "2194": " card",
  "2195": " sick",
  "2196": " path",
  "2197": " cou",
  "2198": " spider",
  "2199": " wide",
  "2200": "Lila",
  "2201": " foot",
  "2202": " snowman",
  "2203": " songs",
  "2204": " life",
  "2205": " pillow",
  "2206": "ize",
  "2207": "ular",
  "2208": " Just",
  "2209": "Later",
  "2210": " Ann",
  "2211": "ert",
  "2212": " fixed",
  "2213": " giant",
  "2214": "oph",
  "2215": "rill",
  "2216": " nod",
  "2217": " boss",
  "2218": " last",
  "2219": " comes",
  "2220": " joke",
  "2221": " moon",
  "2222": " taste",
  "2223": " machine",
  "2224": " grumpy",
  "2225": "den",
  "2226": " wave",
  "2227": " thin",
  "2228": " drive",
  "2229": " cart",
  "2230": " ash",
  "2231": " ser",
  "2232": " grab",
  "2233": " peace",
  "2234": "lower",
  "2235": " daddy",
  "2236": " On",
  "2237": " Leo",
  "2238": "ery",
  "2239": " sel",
  "2240": " shelf",
  "2241": " hidden",
  "2242": "erest",
  "2243": " suddenly",
  "2244": " wasn",
  "2245": " write",
  "2246": " landed",
  "2247": " confused",
  "2248": " ring",
  "2249": " change",
  "2250": " worm",
  "2251": " interest",
  "2252": " chased",
  "2253": "oop",
  "2254": " fruits",
  "2255": " sour",
  "2256": "ity",
  "2257": " myster",
  "2258": " bark",
  "2259": " rad",
  "2260": " smooth",
  "2261": " Come",
  "2262": " adventures",
  "2263": " val",
  "2264": " stepped",
  "2265": " fle",
  "2266": "ope",
  "2267": " oven",
  "2268": " takes",
  "2269": " missed",
  "2270": " selfish",
  "2271": "kin",
  "2272": " sheep",
  "2273": " messy",
  "2274": "To",
  "2275": " across",
  "2276": " ban",
  "2277": " ent",
  "2278": " exp",
  "2279": "to",
  "2280": " ce",
  "2281": " later",
  "2282": "elly",
  "2283": " N",
  "2284": "ife",
  "2285": " sticks",
  "2286": " tie",
  "2287": "St",
  "2288": "ever",
  "2289": " Luna",
  "2290": " step",
  "2291": " bought",
  "2292": " drew",
  "2293": " tea",
  "2294": "pect",
  "2295": "irpy",
  "2296": "box",
  "2297": "?”",
  "2298": " wash",
  "2299": " lay",
  "2300": " pour",
  "2301": " beak",
  "2302": "ose",
  "2303": " jog",
  "2304": " grate",
  "2305": " ducks",
  "2306": " spe",
  "2307": " legs",
  "2308": " dig",
  "2309": " fil",
  "2310": " Bu",
  "2311": " emp",
  "2312": "mer",
  "2313": " hope",
  "2314": " empty",
  "2315": " slid",
  "2316": " feather",
  "2317": " sleepy",
  "2318": " drum",
  "2319": "amed",
  "2320": "ars",
  "2321": "eth",
  "2322": " zoo",
  "2323": " pan",
  "2324": " phone",
  "2325": " grateful",
  "2326": " fing",
  "2327": "ions",
  "2328": " lemon",
  "2329": "let",
  "2330": " Cat",
  "2331": " clever",
  "2332": " Molly",
  "2333": " smelly",
  "2334": "nan",
  "2335": " imag",
  "2336": " splash",
  "2337": " interesting",
  "2338": " Jill",
  "2339": " save",
  "2340": " chick",
  "2341": " calm",
  "2342": " med",
  "2343": " watching",
  "2344": "Soon",
  "2345": "izzy",
  "2346": "izz",
  "2347": " plate",
  "2348": " ign",
  "2349": "yard",
  "2350": " clouds",
  "2351": " line",
  "2352": " faces",
  "2353": " ba",
  "2354": " act",
  "2355": " lift",
  "2356": " though",
  "2357": " wolf",
  "2358": " backyard",
  "2359": "wel",
  "2360": " seemed",
  "2361": " dogs",
  "2362": " spray",
  "2363": "Come",
  "2364": " prot",
  "2365": " whole",
  "2366": " mot",
  "2367": " fancy",
  "2368": " Daddy",
  "2369": " quest",
  "2370": " arms",
  "2371": " puzzle",
  "2372": " healthy",
  "2373": " supp",
  "2374": "ward",
  "2375": " finish",
  "2376": "erly",
  "2377": " along",
  "2378": "llo",
  "2379": " rocket",
  "2380": " explain",
  "2381": " rod",
  "2382": "dge",
  "2383": " easy",
  "2384": " jewel",
  "2385": "ont",
  "2386": " pract",
  "2387": " jelly",
  "2388": " Chirpy",
  "2389": " tid",
  "2390": " fake",
  "2391": " crayons",
  "2392": " wondered",
  "2393": " maybe",
  "2394": " scar",
  "2395": " ship",
  "2396": " nothing",
  "2397": "onest",
  "2398": " emb",
  "2399": "iger",
  "2400": " pool",
  "2401": " longer",
  "2402": " anyone",
  "2403": " Be",
  "2404": " Jerry",
  "2405": "ually",
  "2406": " front",
  "2407": " working",
  "2408": " gives",
  "2409": "irr",
  "2410": " pack",
  "2411": " such",
  "2412": " Bunny",
  "2413": "ocked",
  "2414": "ment",
  "2415": " bossy",
  "2416": " Doggy",
  "2417": " trouble",
  "2418": " smelled",
  "2419": " saved",
  "2420": " pin",
  "2421": "rass",
  "2422": " neigh",
  "2423": "arrass",
  "2424": "iting",
  "2425": " honest",
  "2426": " av",
  "2427": "arge",
  "2428": " embarrass",
  "2429": " van",
  "2430": " forgive",
  "2431": " tidy",
  "2432": " weak",
  "2433": "urse",
  "2434": " puts",
  "2435": "unk",
  "2436": " kick",
  "2437": " shirt",
  "2438": " With",
  "2439": " mind",
  "2440": " Ollie",
  "2441": " neighb",
  "2442": " plants",
  "2443": " sol",
  "2444": " Momo",
  "2445": " gently",
  "2446": " cozy",
  "2447": "orrow",
  "2448": "ming",
  "2449": " explor",
  "2450": "sp",
  "2451": " mistake",
  "2452": " yog",
  "2453": "oc",
  "2454": "oomy",
  "2455": " pointed",
  "2456": " lad",
  "2457": " af",
  "2458": " stood",
  "2459": "ork",
  "2460": " onto",
  "2461": " waiting",
  "2462": " jumping",
  "2463": " prince",
  "2464": " cross",
  "2465": " lock",
  "2466": " cheer",
  "2467": " queen",
  "2468": " Why",
  "2469": " Mary",
  "2470": " wing",
  "2471": "ones",
  "2472": "we",
  "2473": " large",
  "2474": " lovely",
  "2475": "ult",
  "2476": " sur",
  "2477": " ret",
  "2478": "And",
  "2479": " deer",
  "2480": " chew",
  "2481": " couch",
  "2482": " bal",
  "2483": "aughter",
  "2484": " stret",
  "2485": "era",
  "2486": " Their",
  "2487": " places",
  "2488": " My",
  "2489": " ladder",
  "2490": "oof",
  "2491": " return",
  "2492": "raid",
  "2493": " ants",
  "2494": " dish",
  "2495": " afraid",
  "2496": " cleaned",
  "2497": " tomorrow",
  "2498": " building",
  "2499": " sandwich",
  "2500": " person",
  "2501": "Sally",
  "2502": "ned",
  "2503": " pretended",
  "2504": " bounce",
  "2505": " wip",
  "2506": "gest",
  "2507": " match",
  "2508": " rich",
  "2509": "uce",
  "2510": " pizz",
  "2511": " gather",
  "2512": " search",
  "2513": " boring",
  "2514": "oman",
  "2515": " Somet",
  "2516": " teeth",
  "2517": " hum",
  "2518": "Kitty",
  "2519": "My",
  "2520": "aced",
  "2521": " daughter",
  "2522": " woman",
  "2523": " scarf",
  "2524": " goes",
  "2525": " Together",
  "2526": " law",
  "2527": " stra",
  "2528": " swimming",
  "2529": " furry",
  "2530": " splashed",
  "2531": " pri",
  "2532": " loves",
  "2533": " true",
  "2534": " screamed",
  "2535": " lazy",
  "2536": " gen",
  "2537": " answer",
  "2538": " number",
  "2539": " eag",
  "2540": " ashamed",
  "2541": " pizza",
  "2542": "aw",
  "2543": " appeared",
  "2544": " fear",
  "2545": " nearby",
  "2546": " powerful",
  "2547": " flag",
  "2548": " St",
  "2549": " hang",
  "2550": "vous",
  "2551": " clown",
  "2552": "ek",
  "2553": " chase",
  "2554": " motor",
  "2555": " wand",
  "2556": " TV",
  "2557": " rub",
  "2558": " success",
  "2559": " chocol",
  "2560": " If",
  "2561": " creative",
  "2562": " trust",
  "2563": " wearing",
  "2564": " noisy",
  "2565": " matter",
  "2566": "pa",
  "2567": " hello",
  "2568": " ner",
  "2569": " tool",
  "2570": " saf",
  "2571": " Bird",
  "2572": "ado",
  "2573": " nervous",
  "2574": "elp",
  "2575": " test",
  "2576": " smiling",
  "2577": " sold",
  "2578": "icked",
  "2579": "oppy",
  "2580": "osaur",
  "2581": " circle",
  "2582": "mb",
  "2583": " map",
  "2584": " drank",
  "2585": " class",
  "2586": " tries",
  "2587": " chocolate",
  "2588": " Please",
  "2589": " impress",
  "2590": " knee",
  "2591": " gener",
  "2592": " dinosaur",
  "2593": " polite",
  "2594": " mirr",
  "2595": " Bobby",
  "2596": " Tiny",
  "2597": " balloons",
  "2598": " gold",
  "2599": " rare",
  "2600": " protect",
  "2601": " cand",
  "2602": "Stop",
  "2603": " carried",
  "2604": " Go",
  "2605": "ensive",
  "2606": " ap",
  "2607": " shadow",
  "2608": " mirror",
  "2609": "gled",
  "2610": " Don",
  "2611": " bald",
  "2612": " gun",
  "2613": "ina",
  "2614": " expensive",
  "2615": " reg",
  "2616": "iff",
  "2617": " mysterious",
  "2618": " Sp",
  "2619": " pump",
  "2620": " note",
  "2621": " hero",
  "2622": " march",
  "2623": " har",
  "2624": "arl",
  "2625": " icy",
  "2626": " respect",
  "2627": " weird",
  "2628": " snee",
  "2629": " cri",
  "2630": " gate",
  "2631": " soap",
  "2632": "ute",
  "2633": "issors",
  "2634": " these",
  "2635": " poor",
  "2636": " towel",
  "2637": " whale",
  "2638": " feet",
  "2639": " tape",
  "2640": " dizzy",
  "2641": "itter",
  "2642": " generous",
  "2643": "ndpa",
  "2644": " pres",
  "2645": " Benny",
  "2646": "nic",
  "2647": " disco",
  "2648": "Help",
  "2649": "ventually",
  "2650": " picnic",
  "2651": " mic",
  "2652": " lead",
  "2653": " sque",
  "2654": " embarrassed",
  "2655": " journey",
  "2656": " sugar",
  "2657": "isp",
  "2658": "scape",
  "2659": " boot",
  "2660": " tent",
  "2661": " peaceful",
  "2662": " fat",
  "2663": " Bear",
  "2664": " scissors",
  "2665": " tasted",
  "2666": " yelled",
  "2667": "Tommy",
  "2668": " tick",
  "2669": " mel",
  "2670": " brush",
  "2671": " dancing",
  "2672": "ness",
  "2673": " glue",
  "2674": " hur",
  "2675": " rough",
  "2676": " clap",
  "2677": " bridge",
  "2678": "ote",
  "2679": " decor",
  "2680": " closet",
  "2681": " crown",
  "2682": " stir",
  "2683": "ual",
  "2684": "imp",
  "2685": " print",
  "2686": " Sometimes",
  "2687": "owed",
  "2688": "airs",
  "2689": " How",
  "2690": "ume",
  "2691": " cap",
  "2692": " mod",
  "2693": " lamp",
  "2694": " vase",
  "2695": " scare",
  "2696": " gig",
  "2697": "lebr",
  "2698": " relie",
  "2699": "lves",
  "2700": "any",
  "2701": " eld",
  "2702": " tele",
  "2703": " celebr",
  "2704": " whisp",
  "2705": " log",
  "2706": " sco",
  "2707": " blow",
  "2708": "rag",
  "2709": " painted",
  "2710": " Ducky",
  "2711": " pay",
  "2712": "erries",
  "2713": " wis",
  "2714": " berries",
  "2715": " mixed",
  "2716": " spread",
  "2717": " wouldn",
  "2718": " cage",
  "2719": " bake",
  "2720": "rob",
  "2721": "getable",
  "2722": " mountain",
  "2723": " adm",
  "2724": " drawing",
  "2725": " become",
  "2726": " famous",
  "2727": " knocked",
  "2728": " bean",
  "2729": " norm",
  "2730": " vegetable",
  "2731": "asp",
  "2732": " kicked",
  "2733": "ustr",
  "2734": " shark",
  "2735": "ser",
  "2736": " incred",
  "2737": " lose",
  "2738": " normal",
  "2739": " wrap",
  "2740": "ced",
  "2741": " group",
  "2742": " thick",
  "2743": " 3",
  "2744": " fine",
  "2745": " glass",
  "2746": " ignor",
  "2747": " clock",
  "2748": " team",
  "2749": " elderly",
  "2750": " clear",
  "2751": " corner",
  "2752": " frustr",
  "2753": " mighty",
  "2754": "robe",
  "2755": " cone",
  "2756": " incredible",
  "2757": " Br",
  "2758": "ighed",
  "2759": "Dad",
  "2760": " moms",
  "2761": " balance",
  "2762": " sock",
  "2763": " space",
  "2764": " jam",
  "2765": "ragile",
  "2766": " fright",
  "2767": " organized",
  "2768": " branches",
  "2769": " roar",
  "2770": "port",
  "2771": " sword",
  "2772": "alous",
  "2773": " Mama",
  "2774": " guess",
  "2775": " fool",
  "2776": " sell",
  "2777": " feed",
  "2778": " Some",
  "2779": " which",
  "2780": " horn",
  "2781": " present",
  "2782": " jealous",
  "2783": " yarn",
  "2784": "ony",
  "2785": " fragile",
  "2786": " burn",
  "2787": " understood",
  "2788": " mis",
  "2789": " stubb",
  "2790": " ter",
  "2791": " frustrated",
  "2792": "Where",
  "2793": "ray",
  "2794": " hose",
  "2795": "cient",
  "2796": " spent",
  "2797": " shoe",
  "2798": " taught",
  "2799": " stubborn",
  "2800": " twist",
  "2801": " chan",
  "2802": " creature",
  "2803": " chest",
  "2804": " spoiled",
  "2805": " relieved",
  "2806": "ym",
  "2807": " ancient",
  "2808": "ique",
  "2809": " wake",
  "2810": " fier",
  "2811": " pray",
  "2812": " fierce",
  "2813": " eggs",
  "2814": " cab",
  "2815": " terri",
  "2816": " barn",
  "2817": " ord",
  "2818": " pumpkin",
  "2819": " comfortable",
  "2820": " frightened",
  "2821": "orry",
  "2822": " toug",
  "2823": " unique",
  "2824": " measure",
  "2825": " goat",
  "2826": " wagon",
  "2827": " unus",
  "2828": " breath",
  "2829": " foolish",
  "2830": " useful",
  "2831": " exploring",
  "2832": "dle",
  "2833": " straw",
  "2834": " unusual",
  "2835": " dug",
  "2836": " clay",
  "2837": " discover",
  "2838": " tomato",
  "2839": " Pe",
  "2840": " dead",
  "2841": " finding",
  "2842": " police",
  "2843": " wrote",
  "2844": " clum",
  "2845": " exam",
  "2846": "lace",
  "2847": " waves",
  "2848": " square",
  "2849": " hears",
  "2850": " cabin",
  "2851": " tells",
  "2852": " necklace",
  "2853": " dull",
  "2854": " clumsy",
  "2855": " tough",
  "2856": " bubbles",
  "2857": " nosy",
  "2858": "kn",
  "2859": " searched",
  "2860": "Together",
  "2861": " washed",
  "2862": " bathroom",
  "2863": " paws",
  "2864": "bby",
  "2865": "ond",
  "2866": "unn",
  "2867": " board",
  "2868": "fic",
  "2869": "known",
  "2870": " asking",
  "2871": " crazy",
  "2872": " thankful",
  "2873": " sunf",
  "2874": " bitter",
  "2875": "yal",
  "2876": " pir",
  "2877": "berry",
  "2878": "alk",
  "2879": " ind",
  "2880": " diffic",
  "2881": " rose",
  "2882": "cil",
  "2883": " swan",
  "2884": " bloom",
  "2885": " unknown",
  "2886": " Ella",
  "2887": " covered",
  "2888": " difficult",
  "2889": " add",
  "2890": " pencil",
  "2891": " finger",
  "2892": " ham",
  "2893": " hoop",
  "2894": " jet",
  "2895": " witch",
  "2896": " drop",
  "2897": "Me",
  "2898": " '",
  "2899": " chicken",
  "2900": " gloomy",
  "2901": "apped",
  "2902": " loyal",
  "2903": "als",
  "2904": "Here",
  "2905": " wealthy",
  "2906": "com",
  "2907": "light",
  "2908": " unl",
  "2909": " cats",
  "2910": " ending",
  "2911": " guit",
  "2912": "bled",
  "2913": "shine",
  "2914": " dove",
  "2915": " joined",
  "2916": " cher",
  "2917": "anut",
  "2918": " mov",
  "2919": " terrible",
  "2920": " yours",
  "2921": "iant",
  "2922": " U",
  "2923": " Rex",
  "2924": " salad",
  "2925": " Andy",
  "2926": " nuts",
  "2927": " rat",
  "2928": "ground",
  "2929": " tiger",
  "2930": " potato",
  "2931": " mask",
  "2932": "xible",
  "2933": "selves",
  "2934": " value",
  "2935": " changed",
  "2936": " moving",
  "2937": " exciting",
  "2938": "ormous",
  "2939": " Many",
  "2940": " body",
  "2941": " Tr",
  "2942": " toast",
  "2943": "erp",
  "2944": " zip",
  "2945": " disg",
  "2946": " cheap",
  "2947": " guitar",
  "2948": "irsty",
  "2949": " knowing",
  "2950": " adventur",
  "2951": " yourself",
  "2952": " enormous",
  "2953": " hairy",
  "2954": "Every",
  "2955": " shoot",
  "2956": " Brown",
  "2957": " bored",
  "2958": " pepper",
  "2959": " remind",
  "2960": "ory",
  "2961": "land",
  "2962": " acorn",
  "2963": " adventurous",
  "2964": " sunshine",
  "2965": " smaller",
  "2966": " stuff",
  "2967": " hats",
  "2968": " solve",
  "2969": " Jimmy",
  "2970": " flexible",
  "2971": " cost",
  "2972": "rilliant",
  "2973": " knife",
  "2974": " perform",
  "2975": " snacks",
  "2976": " nods",
  "2977": " shore",
  "2978": " brilliant",
  "2979": " thirsty",
  "2980": " delicate",
  "2981": " frown",
  "2982": " disgust",
  "2983": " collect",
  "2984": " stri",
  "2985": " seeds",
  "2986": " counted",
  "2987": " asleep",
  "2988": " banana",
  "2989": "reen",
  "2990": " mailbox",
  "2991": "iness",
  "2992": " dough",
  "2993": " trick",
  "2994": " neighbor",
  "2995": "ungle",
  "2996": " heal",
  "2997": "live",
  "2998": "Who",
  "2999": " stage",
  "3000": "ident",
  "3001": " market",
  "3002": " cube",
  "3003": " stat",
  "3004": " jungle",
  "3005": " squee",
  "3006": "mbre",
  "3007": " explained",
  "3008": "ates",
  "3009": " umbre",
  "3010": " disgusting",
  "3011": "Jim",
  "3012": "fted",
  "3013": " lab",
  "3014": " jolly",
  "3015": " flash",
  "3016": "und",
  "3017": " fridge",
  "3018": "inal",
  "3019": "pid",
  "3020": "ilt",
  "3021": " crane",
  "3022": "corn",
  "3023": " suit",
  "3024": " rh",
  "3025": "iddle",
  "3026": " sunflower",
  "3027": " times",
  "3028": " Al",
  "3029": "erpill",
  "3030": " caterpill",
  "3031": " relax",
  "3032": " shiver",
  "3033": " four",
  "3034": " island",
  "3035": "iginal",
  "3036": " harm",
  "3037": "ict",
  "3038": " While",
  "3039": "ying",
  "3040": " stupid",
  "3041": " medic",
  "3042": " Instead",
  "3043": " comb",
  "3044": " goose",
  "3045": " cro",
  "3046": "edient",
  "3047": " Will",
  "3048": " stove",
  "3049": "If",
  "3050": "Are",
  "3051": " independ",
  "3052": "Mum",
  "3053": "most",
  "3054": " spring",
  "3055": " gem",
  "3056": " batter",
  "3057": " sighed",
  "3058": " vegetables",
  "3059": " stones",
  "3060": "pes",
  "3061": " shine",
  "3062": "How",
  "3063": " medicine",
  "3064": " depend",
  "3065": " rug",
  "3066": " Your",
  "3067": " careless",
  "3068": " original",
  "3069": " stamp",
  "3070": " gar",
  "3071": " cries",
  "3072": "Inside",
  "3073": "gu",
  "3074": " carrots",
  "3075": " scr",
  "3076": " successful",
  "3077": " sauce",
  "3078": " jeep",
  "3079": " popcorn",
  "3080": " meal",
  "3081": " obedient",
  "3082": " almost",
  "3083": " middle",
  "3084": " magn",
  "3085": " study",
  "3086": " independent",
  "3087": " fearful",
  "3088": " jack",
  "3089": "met",
  "3090": "inky",
  "3091": "Sorry",
  "3092": " Sammy",
  "3093": " escape",
  "3094": " caterpillar",
  "3095": " serious",
  "3096": " peanut",
  "3097": " bedroom",
  "3098": " eager",
  "3099": "aken",
  "3100": " gets",
  "3101": "ung",
  "3102": " parrot",
  "3103": " statue",
  "3104": " helmet",
  "3105": " pebb",
  "3106": " No",
  "3107": " fountain",
  "3108": " raven",
  "3109": " pasta",
  "3110": " umbrella",
  "3111": " compet",
  "3112": "There",
  "3113": " jacket",
  "3114": " belonged",
  "3115": " dest",
  "3116": " filthy",
  "3117": " ang",
  "3118": " design",
  "3119": " borrow",
  "3120": " cam",
  "3121": "erable",
  "3122": " houses",
  "3123": " prize",
  "3124": " hay",
  "3125": " brace",
  "3126": " standing",
  "3127": " miserable",
  "3128": " raced",
  "3129": " taken",
  "3130": "ages",
  "3131": " fork",
  "3132": " crayon",
  "3133": " painting",
  "3134": "io",
  "3135": " triang",
  "3136": " jug",
  "3137": " impressive",
  "3138": " choose",
  "3139": " fig",
  "3140": " tied",
  "3141": "iable",
  "3142": " spotted",
  "3143": " lifted",
  "3144": " slipped",
  "3145": "ours",
  "3146": " tank",
  "3147": " thoughtful",
  "3148": " dependable",
  "3149": " steal",
  "3150": " garage",
  "3151": "enny",
  "3152": " built",
  "3153": " mush",
  "3154": " er",
  "3155": "ipe",
  "3156": " mole",
  "3157": " crawled",
  "3158": " scale",
  "3159": " boats",
  "3160": " pian",
  "3161": " pant",
  "3162": " hammer",
  "3163": " bottom",
  "3164": "lph",
  "3165": " cheerful",
  "3166": " using",
  "3167": " smoke",
  "3168": " picks",
  "3169": " moder",
  "3170": "berries",
  "3171": " shows",
  "3172": "rn",
  "3173": " piano",
  "3174": " magnet",
  "3175": "dile",
  "3176": "codile",
  "3177": " hurts",
  "3178": "inary",
  "3179": " ref",
  "3180": " crack",
  "3181": " eng",
  "3182": " aunt",
  "3183": " melon",
  "3184": " waff",
  "3185": " modern",
  "3186": " dolph",
  "3187": "unnel",
  "3188": "cream",
  "3189": "pack",
  "3190": " tunnel",
  "3191": "oin",
  "3192": " arrow",
  "3193": " reliable",
  "3194": " hopping",
  "3195": " mushroom",
  "3196": "Timmy",
  "3197": " squash",
  "3198": " gum",
  "3199": " sink",
  "3200": " movie",
  "3201": " tax",
  "3202": " flute",
  "3203": " beet",
  "3204": " lean",
  "3205": "Their",
  "3206": "iv",
  "3207": " popular",
  "3208": "opter",
  "3209": "icopter",
  "3210": " cryst",
  "3211": " ones",
  "3212": " sil",
  "3213": " competit",
  "3214": " helicopter",
  "3215": "aser",
  "3216": " needs",
  "3217": "ipop",
  "3218": "llipop",
  "3219": " crocodile",
  "3220": " liz",
  "3221": "Molly",
  "3222": " press",
  "3223": " troubled",
  "3224": " pige",
  "3225": " locked",
  "3226": " tricks",
  "3227": " lollipop",
  "3228": " playful",
  "3229": " humble",
  "3230": " taxi",
  "3231": " kissed",
  "3232": " low",
  "3233": "appy",
  "3234": "comfortable",
  "3235": "amond",
  "3236": " uncomfortable",
  "3237": " rid",
  "3238": "host",
  "3239": " wander",
  "3240": "atch",
  "3241": " angel",
  "3242": "edy",
  "3243": "cles",
  "3244": " torn",
  "3245": " grace",
  "3246": " anx",
  "3247": " wrapped",
  "3248": " muff",
  "3249": " twig",
  "3250": " pants",
  "3251": " disappoin",
  "3252": " Sn",
  "3253": " helps",
  "3254": " diamond",
  "3255": " camera",
  "3256": "atter",
  "3257": "oto",
  "3258": " anxious",
  "3259": " ghost",
  "3260": " tears",
  "3261": " ruined",
  "3262": "cident",
  "3263": " Jenny",
  "3264": "ilty",
  "3265": " quar",
  "3266": "aff",
  "3267": " Even",
  "3268": " fis",
  "3269": "opl",
  "3270": " belt",
  "3271": "eropl",
  "3272": " env",
  "3273": " guilty",
  "3274": " bull",
  "3275": " aeropl",
  "3276": " helpless",
  "3277": " happiness",
  "3278": " lizard",
  "3279": " boys",
  "3280": "cut",
  "3281": "ext",
  "3282": " cere",
  "3283": " walks",
  "3284": "cean",
  "3285": " passed",
  "3286": " meant",
  "3287": " ocean",
  "3288": " fluffy",
  "3289": " wire",
  "3290": " nail",
  "3291": " bracelet",
  "3292": " deaf",
  "3293": "zed",
  "3294": " stretch",
  "3295": " candle",
  "3296": " cact",
  "3297": "tt",
  "3298": " beetle",
  "3299": " mop",
  "3300": " harmless",
  "3301": "umpet",
  "3302": " ordinary",
  "3303": " answered",
  "3304": " collar",
  "3305": " cop",
  "3306": " bees",
  "3307": " tire",
  "3308": " shape",
  "3309": " quarrel",
  "3310": " radio",
  "3311": " flashlight",
  "3312": " crystal",
  "3313": " harder",
  "3314": " poured",
  "3315": " trumpet",
  "3316": " engine",
  "3317": "Mama",
  "3318": " persist",
  "3319": " hunt",
  "3320": " tooth",
  "3321": " cereal",
  "3322": " invited",
  "3323": " comput",
  "3324": " tag",
  "3325": " office",
  "3326": " melt",
  "3327": " spill",
  "3328": " charm",
  "3329": "coa",
  "3330": " lit",
  "3331": " scoot",
  "3332": " comet",
  "3333": " triangle",
  "3334": "ief",
  "3335": " mug",
  "3336": " rep",
  "3337": "ube",
  "3338": " yogurt",
  "3339": " spend",
  "3340": " compass",
  "3341": " accident",
  "3342": " shade",
  "3343": "hett",
  "3344": "aghett",
  "3345": "aghetti",
  "3346": " disappointed",
  "3347": " licked",
  "3348": " cactus",
  "3349": " pale",
  "3350": " cush",
  "3351": " figure",
  "3352": " regular",
  "3353": " giving",
  "3354": " avoc",
  "3355": " pro",
  "3356": " sheet",
  "3357": " whispered",
  "3358": "aze",
  "3359": "uth",
  "3360": "ellig",
  "3361": " create",
  "3362": " record",
  "3363": " barber",
  "3364": " intellig",
  "3365": " pipe",
  "3366": " rode",
  "3367": " roof",
  "3368": "Jane",
  "3369": " thread",
  "3370": "ither",
  "3371": " vi",
  "3372": " load",
  "3373": " libr",
  "3374": " gifted",
  "3375": "ccol",
  "3376": " practiced",
  "3377": " delight",
  "3378": "ccoli",
  "3379": " harsh",
  "3380": "asses",
  "3381": " pow",
  "3382": " dust",
  "3383": " True",
  "3384": " bicy",
  "3385": "azz",
  "3386": " spaghetti",
  "3387": " compassion",
  "3388": " sailed",
  "3389": "urkey",
  "3390": "ubby",
  "3391": " forward",
  "3392": " persistent",
  "3393": " speed",
  "3394": " mitten",
  "3395": " cocoa",
  "3396": " envel",
  "3397": " questions",
  "3398": " computer",
  "3399": " coo",
  "3400": " feathers",
  "3401": "hip",
  "3402": " glove",
  "3403": "Bobo",
  "3404": " rice",
  "3405": " shrimp",
  "3406": " desk",
  "3407": " stream",
  "3408": " inse",
  "3409": " pigeon",
  "3410": " charming",
  "3411": " ears",
  "3412": " carp",
  "3413": "lcan",
  "3414": " raft",
  "3415": " envious",
  "3416": " knot",
  "3417": " turkey",
  "3418": "ud",
  "3419": " stronger",
  "3420": "omes",
  "3421": " coins",
  "3422": " tap",
  "3423": "lcano",
  "3424": "weet",
  "3425": " trap",
  "3426": "umbers",
  "3427": " aeroplane",
  "3428": " trunk",
  "3429": " wheat",
  "3430": " boxes",
  "3431": " chubby",
  "3432": " carpet",
  "3433": " restless",
  "3434": " intelligent",
  "3435": " tube",
  "3436": " spun",
  "3437": " dreams",
  "3438": " friendship",
  "3439": "ulif",
  "3440": "olin",
  "3441": " half",
  "3442": " loop",
  "3443": " crawl",
  "3444": " broccoli",
  "3445": " onion",
  "3446": " deliver",
  "3447": " acce",
  "3448": "anger",
  "3449": " vide",
  "3450": " volcano",
  "3451": " Jake",
  "3452": " sle",
  "3453": " track",
  "3454": " bri",
  "3455": " caulif",
  "3456": " vine",
  "3457": "ye",
  "3458": " ticket",
  "3459": " thief",
  "3460": "essie",
  "3461": "cycle",
  "3462": " louder",
  "3463": " insect",
  "3464": " numbers",
  "3465": "asing",
  "3466": " yaw",
  "3467": " haircut",
  "3468": "ital",
  "3469": " sleeping",
  "3470": "ugg",
  "3471": " mill",
  "3472": " eventually",
  "3473": " alert",
  "3474": " excite",
  "3475": " pebble",
  "3476": " hosp",
  "3477": " attract",
  "3478": " planet",
  "3479": " Today",
  "3480": " univer",
  "3481": "isted",
  "3482": "ulu",
  "3483": " hospital",
  "3484": " eraser",
  "3485": " returned",
  "3486": " destro",
  "3487": " graceful",
  "3488": " happening",
  "3489": "ache",
  "3490": " OK",
  "3491": " Emily",
  "3492": " decide",
  "3493": " learning",
  "3494": " screen",
  "3495": "rework",
  "3496": " nicely",
  "3497": " leop",
  "3498": " cauliflower",
  "3499": " competitive",
  "3500": " poem",
  "3501": " celebrate",
  "3502": " curt",
  "3503": " peach",
  "3504": " soldier",
  "3505": " saus",
  "3506": " parade",
  "3507": "atient",
  "3508": " attractive",
  "3509": " curtain",
  "3510": " dolphin",
  "3511": " base",
  "3512": " violin",
  "3513": " ways",
  "3514": "Go",
  "3515": "ats",
  "3516": " travel",
  "3517": "ten",
  "3518": " ignorant",
  "3519": "ulb",
  "3520": " wheels",
  "3521": " yach",
  "3522": " scatter",
  "3523": " deter",
  "3524": " compassionate",
  "3525": " barrel",
  "3526": " envelope",
  "3527": " bubble",
  "3528": " lying",
  "3529": " firework",
  "3530": " sort",
  "3531": " question",
  "3532": "zzy",
  "3533": " Pipp",
  "3534": " scooter",
  "3535": " determ",
  "3536": " rag",
  "3537": " bicycle",
  "3538": "elery",
  "3539": " needle",
  "3540": " Fr",
  "3541": " judge",
  "3542": " bulb",
  "3543": " leopard",
  "3544": " tem",
  "3545": " yacht",
  "3546": " pony",
  "3547": " cricket",
  "3548": " order",
  "3549": " homes",
  "3550": " ador",
  "3551": "tern",
  "3552": " truth",
  "3553": " hook",
  "3554": "dom",
  "3555": " rubbed",
  "3556": "ete",
  "3557": "igator",
  "3558": " bushes",
  "3559": "Sarah",
  "3560": " uncle",
  "3561": " cushion",
  "3562": " spell",
  "3563": " grown",
  "3564": " cooked",
  "3565": " adorable",
  "3566": " chalk",
  "3567": " soar",
  "3568": " purse",
  "3569": " skin",
  "3570": " themselves",
  "3571": " impatient",
  "3572": " celery",
  "3573": " tray",
  "3574": " shells",
  "3575": " pengu",
  "3576": " sniff",
  "3577": " prun",
  "3578": " walls",
  "3579": " seal",
  "3580": " lively",
  "3581": " case",
  "3582": " alligator",
  "3583": " distant",
  "3584": " radish",
  "3585": " saying",
  "3586": " speak",
  "3587": " motorcycle",
  "3588": " meat",
  "3589": " send",
  "3590": "illa",
  "3591": " spinning",
  "3592": " forth",
  "3593": " counting",
  "3594": " enth",
  "3595": " bounced",
  "3596": " chain",
  "3597": " ed",
  "3598": " cleaning",
  "3599": "ebra",
  "3600": " film",
  "3601": " slept",
  "3602": " pit",
  "3603": " surf",
  "3604": " marry",
  "3605": "usia",
  "3606": " wallet",
  "3607": " enthusia",
  "3608": " metal",
  "3609": "urb",
  "3610": "ebook",
  "3611": " bin",
  "3612": " week",
  "3613": " notebook",
  "3614": " wiped",
  "3615": " skip",
  "3616": "ision",
  "3617": "chair",
  "3618": " biggest",
  "3619": " impro",
  "3620": " avocado",
  "3621": " behave",
  "3622": " destroy",
  "3623": "vator",
  "3624": " bandage",
  "3625": " laughs",
  "3626": " steak",
  "3627": " pattern",
  "3628": " Sh",
  "3629": " post",
  "3630": " elevator",
  "3631": " Buzz",
  "3632": "usie",
  "3633": " dive",
  "3634": " shut",
  "3635": " skipped",
  "3636": " unlock",
  "3637": " diary",
  "3638": "ject",
  "3639": " zebra",
  "3640": " bags",
  "3641": "ating",
  "3642": " armchair",
  "3643": "rage",
  "3644": "aged",
  "3645": "under",
  "3646": " disturb",
  "3647": " oy",
  "3648": " pole",
  "3649": " showing",
  "3650": " gathered",
  "3651": " club",
  "3652": " nurse",
  "3653": "bul",
  "3654": " earth",
  "3655": " enc",
  "3656": " stranger",
  "3657": " sweater",
  "3658": " jellyfish",
  "3659": " screw",
  "3660": " temp",
  "3661": " Poppy",
  "3662": " compl",
  "3663": " mixer",
  "3664": "Give",
  "3665": " skull",
  "3666": " lime",
  "3667": " bump",
  "3668": "bulance",
  "3669": " ambulance",
  "3670": "nam",
  "3671": " father",
  "3672": " journal",
  "3673": "Gra",
  "3674": " loudly",
  "3675": "ito",
  "3676": " folder",
  "3677": " shield",
  "3678": " Bet",
  "3679": " Lulu",
  "3680": " library",
  "3681": " Peter",
  "3682": " buttons",
  "3683": " playground",
  "3684": " trucks",
  "3685": " ink",
  "3686": " lights",
  "3687": " tummy",
  "3688": " pointing",
  "3689": " city",
  "3690": " decorate",
  "3691": " station",
  "3692": "irit",
  "3693": " prep",
  "3694": " falls",
  "3695": "quito",
  "3696": " Polly",
  "3697": "Billy",
  "3698": " Fo",
  "3699": " fu",
  "3700": "ention",
  "3701": "nger",
  "3702": " Birdy",
  "3703": "lies",
  "3704": " herb",
  "3705": "nament",
  "3706": " ornament",
  "3707": " modest",
  "3708": " guard",
  "3709": " mos",
  "3710": " knows",
  "3711": " cord",
  "3712": " polish",
  "3713": " marble",
  "3714": "oby",
  "3715": " mosquito",
  "3716": "umbled",
  "3717": " salt",
  "3718": " attic",
  "3719": " whenever",
  "3720": " vest",
  "3721": "ctop",
  "3722": " resc",
  "3723": " yet",
  "3724": " ple",
  "3725": " disappeared",
  "3726": "ceed",
  "3727": " strawberry",
  "3728": " once",
  "3729": " Mum",
  "3730": " kay",
  "3731": " brothers",
  "3732": " itch",
  "3733": " pirate",
  "3734": " football",
  "3735": " split",
  "3736": "kele",
  "3737": "keleton",
  "3738": " hipp",
  "3739": " aut",
  "3740": " led",
  "3741": "uring",
  "3742": "ctopus",
  "3743": " driving",
  "3744": " cable",
  "3745": " support",
  "3746": " calling",
  "3747": " cupboard",
  "3748": "aky",
  "3749": "ushed",
  "3750": " wishes",
  "3751": " complet",
  "3752": " tripped",
  "3753": " root",
  "3754": "gl",
  "3755": " kayak",
  "3756": " octopus",
  "3757": "obile",
  "3758": " added",
  "3759": " edge",
  "3760": " mild",
  "3761": "stic",
  "3762": " determined",
  "3763": " succeed",
  "3764": "?\".",
  "3765": " reading",
  "3766": "omobile",
  "3767": " coal",
  "3768": "Well",
  "3769": "utes",
  "3770": "par",
  "3771": " suggest",
  "3772": " stack",
  "3773": " thunder",
  "3774": " kindness",
  "3775": " automobile",
  "3776": " complain",
  "3777": " enthusiastic",
  "3778": " sneeze",
  "3779": " cartoon",
  "3780": " yoga",
  "3781": " Little",
  "3782": " growl",
  "3783": "htub",
  "3784": " flea",
  "3785": "la",
  "3786": " meadow",
  "3787": " drawer",
  "3788": " bathtub",
  "3789": " ribb",
  "3790": "ophone",
  "3791": " means",
  "3792": " hall",
  "3793": " golf",
  "3794": " skeleton",
  "3795": " math",
  "3796": " veil",
  "3797": " hunter",
  "3798": " gor",
  "3799": " flame",
  "3800": " poke",
  "3801": " video",
  "3802": " chess",
  "3803": " troph",
  "3804": " cups",
  "3805": " glowing",
  "3806": " matt",
  "3807": " oyster",
  "3808": "work",
  "3809": " penny",
  "3810": " spear",
  "3811": " itself",
  "3812": " drawings",
  "3813": " hippo",
  "3814": " repair",
  "3815": " switch",
  "3816": "glasses",
  "3817": " sunglasses",
  "3818": " teleph",
  "3819": " costume",
  "3820": " dess",
  "3821": " zipp",
  "3822": ",”",
  "3823": " repe",
  "3824": " muffin",
  "3825": " arg",
  "3826": " pastry",
  "3827": " pun",
  "3828": " rolling",
  "3829": " minutes",
  "3830": " packed",
  "3831": " makeup",
  "3832": "iron",
  "3833": "ric",
  "3834": " People",
  "3835": " waffle",
  "3836": "case",
  "3837": " handle",
  "3838": " pear",
  "3839": " maze",
  "3840": " telephone",
  "3841": " pine",
  "3842": "ait",
  "3843": " gear",
  "3844": " hedge",
  "3845": " mattress",
  "3846": " package",
  "3847": "aving",
  "3848": " Miss",
  "3849": " shocked",
  "3850": "ines",
  "3851": " trophy",
  "3852": " powder",
  "3853": " knight",
  "3854": " cob",
  "3855": " missile",
  "3856": " managed",
  "3857": " frame",
  "3858": " encou",
  "3859": " wife",
  "3860": " ok",
  "3861": " separ",
  "3862": "web",
  "3863": " stairs",
  "3864": " rot",
  "3865": " camp",
  "3866": "urch",
  "3867": "rophone",
  "3868": " magaz",
  "3869": " colour",
  "3870": " grapes",
  "3871": "time",
  "3872": " file",
  "3873": "head",
  "3874": " Tina",
  "3875": " basketball",
  "3876": "Bye",
  "3877": "old",
  "3878": "per",
  "3879": " cobweb",
  "3880": "Re",
  "3881": "Jimmy",
  "3882": "anas",
  "3883": " Tweet",
  "3884": "See",
  "3885": " perm",
  "3886": " wool",
  "3887": " microphone",
  "3888": "esday",
  "3889": " eye",
  "3890": " leash",
  "3891": " gasp",
  "3892": "iew",
  "3893": "keep",
  "3894": " weep",
  "3895": " barking",
  "3896": "ature",
  "3897": " safely",
  "3898": " Dan",
  "3899": " tear",
  "3900": " view",
  "3901": "ffe",
  "3902": " slides",
  "3903": " steps",
  "3904": "istol",
  "3905": "ffee",
  "3906": " bananas",
  "3907": " staff",
  "3908": " spirit",
  "3909": " task",
  "3910": " giggled",
  "3911": " hoc",
  "3912": " hockey",
  "3913": " vend",
  "3914": " those",
  "3915": " gorilla",
  "3916": "Jill",
  "3917": " cooler",
  "3918": " Rose",
  "3919": "was",
  "3920": "cing",
  "3921": " early",
  "3922": " marched",
  "3923": "rosc",
  "3924": " mint",
  "3925": " Look",
  "3926": "washer",
  "3927": " flour",
  "3928": " hotel",
  "3929": "hic",
  "3930": " sailor",
  "3931": " dessert",
  "3932": " photo",
  "3933": "roscope",
  "3934": " vehic",
  "3935": "ilot",
  "3936": " often",
  "3937": " church",
  "3938": " Pete",
  "3939": " cooking",
  "3940": " remain",
  "3941": " five",
  "3942": " sausage",
  "3943": "otter",
  "3944": " ten",
  "3945": " tools",
  "3946": " medal",
  "3947": " either",
  "3948": " fireman",
  "3949": "chor",
  "3950": " grandpa",
  "3951": " otter",
  "3952": " baseball",
  "3953": " pretending",
  "3954": " pistol",
  "3955": " dishwasher",
  "3956": " rever",
  "3957": " organize",
  "3958": " pee",
  "3959": " vendor",
  "3960": " knock",
  "3961": " sight",
  "3962": " grill",
  "3963": " temple",
  "3964": " battery",
  "3965": " thinking",
  "3966": " opens",
  "3967": " ow",
  "3968": " realised",
  "3969": " iron",
  "3970": " laser",
  "3971": " sne",
  "3972": " sandbox",
  "3973": " oil",
  "3974": " patch",
  "3975": " hours",
  "3976": " rise",
  "3977": " whip",
  "3978": "'d",
  "3979": "ctory",
  "3980": " Give",
  "3981": " anchor",
  "3982": " trash",
  "3983": "ense",
  "3984": " short",
  "3985": "ney",
  "3986": " Betty",
  "3987": " rhin",
  "3988": " factory",
  "3989": "seum",
  "3990": " may",
  "3991": " ward",
  "3992": "ately",
  "3993": " cardboard",
  "3994": "ugged",
  "3995": " lotion",
  "3996": "Al",
  "3997": " message",
  "3998": " valu",
  "3999": " wardrobe",
  "4000": " cell",
  "4001": " museum",
  "4002": "apers",
  "4003": " ur",
  "4004": "ination",
  "4005": " hanging",
  "4006": "ucet",
  "4007": "ailable",
  "4008": " Sunny",
  "4009": " Zoom",
  "4010": " hive",
  "4011": "eer",
  "4012": " towers",
  "4013": "keeper",
  "4014": " blackboard",
  "4015": " mem",
  "4016": " excitement",
  "4017": " coffee",
  "4018": " pilot",
  "4019": "ready",
  "4020": "Fluffy",
  "4021": " napkin",
  "4022": " penguin",
  "4023": "ron",
  "4024": " check",
  "4025": " reward",
  "4026": "loo",
  "4027": " quit",
  "4028": " Pippin",
  "4029": " cane",
  "4030": " picking",
  "4031": "place",
  "4032": " Snow",
  "4033": "azor",
  "4034": " faucet",
  "4035": " ig",
  "4036": " passport",
  "4037": " Rob",
  "4038": " stumbled",
  "4039": " dreamed",
  "4040": " igloo",
  "4041": " Bessie",
  "4042": "aroo",
  "4043": "angaroo",
  "4044": " freez",
  "4045": " juicy",
  "4046": " allowed",
  "4047": "play",
  "4048": " holds",
  "4049": " already",
  "4050": " available",
  "4051": " sett",
  "4052": " bathe",
  "4053": " tornado",
  "4054": "imney",
  "4055": " fingers",
  "4056": "htray",
  "4057": " hanger",
  "4058": " newsp",
  "4059": " size",
  "4060": " laund",
  "4061": " lend",
  "4062": " chimney",
  "4063": " laundry",
  "4064": " oak",
  "4065": " fisher",
  "4066": " kangaroo",
  "4067": " men",
  "4068": " Everywhere",
  "4069": " telling",
  "4070": "Em",
  "4071": " novel",
  "4072": "body",
  "4073": " mummy",
  "4074": " pal",
  "4075": " mule",
  "4076": " cherries",
  "4077": " notice",
  "4078": " practice",
  "4079": " spilled",
  "4080": " reind",
  "4081": " complete",
  "4082": " enjoying",
  "4083": " microscope",
  "4084": "ampoo",
  "4085": " gain",
  "4086": " sub",
  "4087": " fireplace",
  "4088": " imagine",
  "4089": "anda",
  "4090": "arian",
  "4091": " display",
  "4092": "ocer",
  "4093": " Zip",
  "4094": " fastest",
  "4095": " magazine",
  "4096": " hurry",
  "4097": " cabinet",
  "4098": " shrink",
  "4099": " ashtray",
  "4100": "Wait",
  "4101": " cows",
  "4102": " Spike",
  "4103": "Joe",
  "4104": "gen",
  "4105": " palace",
  "4106": " improve",
  "4107": "aches",
  "4108": " rake",
  "4109": " reindeer",
  "4110": " falling",
  "4111": "oceros",
  "4112": " skirt",
  "4113": "ured",
  "4114": " discovered",
  "4115": " stared",
  "4116": " roared",
  "4117": "aid",
  "4118": " silver",
  "4119": " tub",
  "4120": " trail",
  "4121": "Is",
  "4122": " miner",
  "4123": "come",
  "4124": " bill",
  "4125": "iction",
  "4126": " fog",
  "4127": " ax",
  "4128": "stairs",
  "4129": "ilet",
  "4130": " hut",
  "4131": " happier",
  "4132": " taller",
  "4133": "ictionary",
  "4134": " oats",
  "4135": " fisherman",
  "4136": " object",
  "4137": " por",
  "4138": "vision",
  "4139": " valuable",
  "4140": " shampoo",
  "4141": " holes",
  "4142": " offered",
  "4143": " boots",
  "4144": " rhinoceros",
  "4145": " names",
  "4146": " toilet",
  "4147": " climbing",
  "4148": " blin",
  "4149": "vice",
  "4150": "Ow",
  "4151": " stretched",
  "4152": "iest",
  "4153": " zipper",
  "4154": " listening",
  "4155": " sym",
  "4156": " bathrobe",
  "4157": "alend",
  "4158": " jewelry",
  "4159": " Here",
  "4160": " jokes",
  "4161": " television",
  "4162": " prov",
  "4163": " calend",
  "4164": " stops",
  "4165": " axe",
  "4166": " jumps",
  "4167": " fuel",
  "4168": " sparkly",
  "4169": "cu",
  "4170": " perfume",
  "4171": " Susie",
  "4172": " bury",
  "4173": "bol",
  "4174": "Mummy",
  "4175": " pressed",
  "4176": " Kim",
  "4177": "reek",
  "4178": " rece",
  "4179": "fa",
  "4180": " Toby",
  "4181": " neat",
  "4182": " creek",
  "4183": " popped",
  "4184": " opera",
  "4185": " calendar",
  "4186": " snap",
  "4187": " gasped",
  "4188": " attach",
  "4189": " symbol",
  "4190": " Mar",
  "4191": " tuna",
  "4192": " papers",
  "4193": "Mr",
  "4194": " unpack",
  "4195": " resist",
  "4196": " dictionary",
  "4197": " subway",
  "4198": " letters",
  "4199": " freezer",
  "4200": " chose",
  "4201": " pinch",
  "4202": "zag",
  "4203": " spoke",
  "4204": " anyway",
  "4205": " super",
  "4206": " porch",
  "4207": " helper",
  "4208": "affe",
  "4209": " bikes",
  "4210": " lie",
  "4211": "arry",
  "4212": "iches",
  "4213": " tightly",
  "4214": " comfort",
  "4215": " shaking",
  "4216": " bookcase",
  "4217": " son",
  "4218": " razor",
  "4219": "aurant",
  "4220": " sandwiches",
  "4221": " Are",
  "4222": "igzag",
  "4223": " weigh",
  "4224": " against",
  "4225": " stickers",
  "4226": " restaurant",
  "4227": " newspaper",
  "4228": " blouse",
  "4229": " vehicle",
  "4230": " swinging",
  "4231": " disag",
  "4232": " ped",
  "4233": " nature",
  "4234": " squirrels",
  "4235": "ival",
  "4236": " belongs",
  "4237": " swamp",
  "4238": " incl",
  "4239": " butterflies",
  "4240": " gym",
  "4241": " growing",
  "4242": " buckle",
  "4243": "omed",
  "4244": " stirred",
  "4245": " mustache",
  "4246": " billboard",
  "4247": "xy",
  "4248": " beep",
  "4249": "te",
  "4250": " alarm",
  "4251": " lightning",
  "4252": " lip",
  "4253": " fest",
  "4254": " hung",
  "4255": "utor",
  "4256": " distance",
  "4257": "ogn",
  "4258": " cards",
  "4259": " obser",
  "4260": " agree",
  "4261": "Little",
  "4262": " ext",
  "4263": " tease",
  "4264": " recogn",
  "4265": " rubber",
  "4266": "ik",
  "4267": " hate",
  "4268": "fast",
  "4269": "ef",
  "4270": "Ouch",
  "4271": " doesn",
  "4272": " musician",
  "4273": " advice",
  "4274": " beef",
  "4275": " serve",
  "4276": "aspoon",
  "4277": " sweetie",
  "4278": " model",
  "4279": "lter",
  "4280": " crib",
  "4281": " blueberries",
  "4282": " sofa",
  "4283": " circles",
  "4284": " breakfast",
  "4285": " tutor",
  "4286": "asis",
  "4287": " bookshe",
  "4288": "stri",
  "4289": " giraffe",
  "4290": " festival",
  "4291": " separate",
  "4292": " shelter",
  "4293": " gas",
  "4294": " airport",
  "4295": " olive",
  "4296": " Big",
  "4297": " rail",
  "4298": " bookshelf",
  "4299": " frogs",
  "4300": " teaspoon",
  "4301": " reverse",
  "4302": " junk",
  "4303": " riding",
  "4304": " pleased",
  "4305": " drain",
  "4306": " Mrs",
  "4307": " wipe",
  "4308": " oasis",
  "4309": " soil",
  "4310": " ahead",
  "4311": " rescue",
  "4312": " leaving",
  "4313": "ummer",
  "4314": " painter",
  "4315": " squeeze",
  "4316": " chance",
  "4317": " poked",
  "4318": " knob",
  "4319": " Teddy",
  "4320": " peeked",
  "4321": " lumber",
  "4322": " trains",
  "4323": " extra",
  "4324": " slipp",
  "4325": " quiz",
  "4326": " refused",
  "4327": "res",
  "4328": "rmomet",
  "4329": " page",
  "4330": " rules",
  "4331": " happens",
  "4332": " sounded",
  "4333": " ins",
  "4334": " point",
  "4335": " winter",
  "4336": " dancer",
  "4337": " Grandpa",
  "4338": " birdc",
  "4339": " disappear",
  "4340": "rmometer",
  "4341": " Dolly",
  "4342": " weather",
  "4343": " waste",
  "4344": " lic",
  "4345": " birdcage",
  "4346": " theater",
  "4347": " reef",
  "4348": " carrying",
  "4349": "Daisy",
  "4350": " invite",
  "4351": "iform",
  "4352": " goal",
  "4353": " ostri",
  "4354": " uniform",
  "4355": " swung",
  "4356": " trade",
  "4357": " cliff",
  "4358": " wig",
  "4359": "ience",
  "4360": " lawn",
  "4361": "ola",
  "4362": " leaned",
  "4363": " Pandy",
  "4364": "angu",
  "4365": " accept",
  "4366": " admire",
  "4367": " fort",
  "4368": " accidentally",
  "4369": " pastel",
  "4370": "bbles",
  "4371": " stom",
  "4372": " langu",
  "4373": " twir",
  "4374": " suff",
  "4375": " panda",
  "4376": "riger",
  "4377": " bet",
  "4378": "rigerator",
  "4379": " peek",
  "4380": "render",
  "4381": " blinked",
  "4382": " starts",
  "4383": " refrigerator",
  "4384": " anywhere",
  "4385": "!\".",
  "4386": " imagined",
  "4387": " dreaming",
  "4388": " remove",
  "4389": "night",
  "4390": " shower",
  "4391": " Lee",
  "4392": " Co",
  "4393": " classroom",
  "4394": " ceiling",
  "4395": " caring",
  "4396": "ium",
  "4397": " grand",
  "4398": " missing",
  "4399": "aked",
  "4400": " license",
  "4401": " stable",
  "4402": " thermometer",
  "4403": " monkeys",
  "4404": "astic",
  "4405": " warned",
  "4406": " summer",
  "4407": " Where",
  "4408": " above",
  "4409": " brick",
  "4410": "ected",
  "4411": " cudd",
  "4412": " problems",
  "4413": "amber",
  "4414": " chasing",
  "4415": " label",
  "4416": " apron",
  "4417": " sent",
  "4418": "urnit",
  "4419": "urniture",
  "4420": " lawy",
  "4421": " lid",
  "4422": "uggage",
  "4423": "med",
  "4424": " respectful",
  "4425": " furniture",
  "4426": " frowned",
  "4427": " zoomed",
  "4428": " pages",
  "4429": " prevent",
  "4430": " bent",
  "4431": " luggage",
  "4432": " mistakes",
  "4433": " sunset",
  "4434": " ostrich",
  "4435": "ison",
  "4436": " suggested",
  "4437": " windows",
  "4438": "ations",
  "4439": " jail",
  "4440": "low",
  "4441": " wine",
  "4442": " ribbon",
  "4443": " older",
  "4444": " shouts",
  "4445": " grape",
  "4446": " Cl",
  "4447": " strug",
  "4448": "ucture",
  "4449": " structure",
  "4450": " spoil",
  "4451": "eor",
  "4452": " fixing",
  "4453": " chamber",
  "4454": " lions",
  "4455": " delay",
  "4456": " finds",
  "4457": " handed",
  "4458": " searching",
  "4459": " unite",
  "4460": "Did",
  "4461": " fought",
  "4462": " lawyer",
  "4463": " brightly",
  "4464": " pair",
  "4465": " meeting",
  "4466": " choice",
  "4467": " surprises",
  "4468": " Un",
  "4469": " Ellie",
  "4470": " art",
  "4471": "Ch",
  "4472": " favour",
  "4473": "eterin",
  "4474": "eterinarian",
  "4475": "adium",
  "4476": " stadium",
  "4477": " proudly",
  "4478": "iki",
  "4479": " veterinarian",
  "4480": "vet",
  "4481": " chairs",
  "4482": "rod",
  "4483": " slip",
  "4484": " Spe",
  "4485": " sadly",
  "4486": " Bow",
  "4487": " incre",
  "4488": " Carl",
  "4489": " puddles",
  "4490": " berry",
  "4491": " introd",
  "4492": " ranch",
  "4493": "veal",
  "4494": " Boun",
  "4495": " argue",
  "4496": " V",
  "4497": " admired",
  "4498": " cur",
  "4499": " favourite",
  "4500": "Your",
  "4501": " inf",
  "4502": " excitedly",
  "4503": " rac",
  "4504": " grabs",
  "4505": "mend",
  "4506": " steam",
  "4507": "thank",
  "4508": " human",
  "4509": "eorge",
  "4510": "sity",
  "4511": " Hel",
  "4512": " pushing",
  "4513": " saving",
  "4514": " Red",
  "4515": " reveal",
  "4516": "ommend",
  "4517": "alley",
  "4518": " yield",
  "4519": "olog",
  "4520": " mall",
  "4521": " reminded",
  "4522": " recommend",
  "4523": " leak",
  "4524": " surrender",
  "4525": " harb",
  "4526": " appl",
  "4527": "cuss",
  "4528": "aul",
  "4529": " weap",
  "4530": " regret",
  "4531": " putting",
  "4532": " valley",
  "4533": " mineral",
  "4534": " evening",
  "4535": "chan",
  "4536": "elcome",
  "4537": " matches",
  "4538": " forgave",
  "4539": " sneezed",
  "4540": " pup",
  "4541": " aw",
  "4542": " rushed",
  "4543": "ecause",
  "4544": " spade",
  "4545": " apolog",
  "4546": " plates",
  "4547": " discuss",
  "4548": " beg",
  "4549": " prepare",
  "4550": " harbor",
  "4551": " ignore",
  "4552": " country",
  "4553": " language",
  "4554": " Buzzy",
  "4555": " pulls",
  "4556": " plastic",
  "4557": " supply",
  "4558": " float",
  "4559": " sniffed",
  "4560": " Jazz",
  "4561": " replace",
  "4562": " meas",
  "4563": " shovel",
  "4564": " Bill",
  "4565": " raise",
  "4566": " Next",
  "4567": " fre",
  "4568": " cared",
  "4569": " socks",
  "4570": " strip",
  "4571": " doors",
  "4572": " mystery",
  "4573": " lives",
  "4574": " restore",
  "4575": " sticker",
  "4576": " sudden",
  "4577": "ari",
  "4578": " kinds",
  "4579": " slippery",
  "4580": "ero",
  "4581": " Ow",
  "4582": " player",
  "4583": " panic",
  "4584": "ricane",
  "4585": " hoping",
  "4586": "iday",
  "4587": " shone",
  "4588": "lex",
  "4589": "ude",
  "4590": "hero",
  "4591": " Mike",
  "4592": " Binky",
  "4593": " superhero",
  "4594": " delighted",
  "4595": " gro",
  "4596": "Yay",
  "4597": " chickens",
  "4598": " shoulder",
  "4599": " rained",
  "4600": " colourful",
  "4601": " breat",
  "4602": " Alice",
  "4603": " claw",
  "4604": " Bubbles",
  "4605": "Yuck",
  "4606": " softly",
  "4607": "rise",
  "4608": " port",
  "4609": "Grandma",
  "4610": " hol",
  "4611": "icer",
  "4612": " holiday",
  "4613": " \\xe2\\x80",
  "4614": " barks",
  "4615": "ason",
  "4616": " throwing",
  "4617": " planes",
  "4618": "Mary",
  "4619": " bend",
  "4620": " Freddy",
  "4621": " shakes",
  "4622": " infant",
  "4623": " ended",
  "4624": " shivering",
  "4625": " kneel",
  "4626": " sunrise",
  "4627": " pushes",
  "4628": " Olive",
  "4629": " thanks",
  "4630": " fresh",
  "4631": " suffer",
  "4632": " points",
  "4633": "imed",
  "4634": "wards",
  "4635": " Pat",
  "4636": " tip",
  "4637": " Speedy",
  "4638": " freeze",
  "4639": " keeping",
  "4640": " Would",
  "4641": " giggle",
  "4642": " copper",
  "4643": " smells",
  "4644": " dear",
  "4645": "ah",
  "4646": " enter",
  "4647": " provide",
  "4648": "cast",
  "4649": "chanic",
  "4650": " dishes",
  "4651": " End",
  "4652": " applau",
  "4653": "cond",
  "4654": " unh",
  "4655": "Next",
  "4656": " heads",
  "4657": " hurricane",
  "4658": " cherry",
  "4659": " thumb",
  "4660": " menu",
  "4661": " meowed",
  "4662": " mass",
  "4663": " second",
  "4664": " brighter",
  "4665": "ince",
  "4666": " sandcast",
  "4667": " mechanic",
  "4668": " wre",
  "4669": " sprayed",
  "4670": " letting",
  "4671": " event",
  "4672": " weapon",
  "4673": " laught",
  "4674": " x",
  "4675": " laughter",
  "4676": " clapping",
  "4677": " feelings",
  "4678": "Will",
  "4679": "icky",
  "4680": " splashing",
  "4681": "ement",
  "4682": " Or",
  "4683": "acked",
  "4684": " castles",
  "4685": " Fl",
  "4686": "cer",
  "4687": " score",
  "4688": "apping",
  "4689": " universe",
  "4690": " navy",
  "4691": " dem",
  "4692": " sticky",
  "4693": "ophie",
  "4694": " rooms",
  "4695": " row",
  "4696": " flies",
  "4697": "igi",
  "4698": " Dave",
  "4699": " unhappy",
  "4700": " greedy",
  "4701": " dare",
  "4702": " alive",
  "4703": " breaks",
  "4704": " ener",
  "4705": " courage",
  "4706": " invit",
  "4707": "Ready",
  "4708": " repeat",
  "4709": " demand",
  "4710": "gie",
  "4711": " trusted",
  "4712": "Lisa",
  "4713": " somewhere",
  "4714": "arlie",
  "4715": " prune",
  "4716": "bles",
  "4717": " wreck",
  "4718": " Y",
  "4719": " skill",
  "4720": " examine",
  "4721": " parts",
  "4722": "year",
  "4723": " eaten",
  "4724": "oe",
  "4725": "All",
  "4726": "erc",
  "4727": "enry",
  "4728": " mention",
  "4729": " raining",
  "4730": " Help",
  "4731": " snug",
  "4732": "Buddy",
  "4733": " throws",
  "4734": " jogged",
  "4735": "quest",
  "4736": " starting",
  "4737": " rush",
  "4738": " poison",
  "4739": " pirates",
  "4740": "heart",
  "4741": " vac",
  "4742": " content",
  "4743": "Emma",
  "4744": " Kiki",
  "4745": " sigh",
  "4746": " flapped",
  "4747": " drops",
  "4748": " chirp",
  "4749": " sport",
  "4750": "Qu",
  "4751": " sparkled",
  "4752": " Zoomy",
  "4753": " given",
  "4754": " streng",
  "4755": " steel",
  "4756": "Ann",
  "4757": " bumped",
  "4758": " yawned",
  "4759": " stud",
  "4760": " request",
  "4761": " scold",
  "4762": " myself",
  "4763": " strength",
  "4764": " shrugged",
  "4765": "Mark",
  "4766": " coats",
  "4767": " punish",
  "4768": " equ",
  "4769": " university",
  "4770": " paid",
  "4771": " Johnny",
  "4772": " pigs",
  "4773": " scratch",
  "4774": " toe",
  "4775": " exerc",
  "4776": " tracks",
  "4777": " upstairs",
  "4778": " prayed",
  "4779": " crossed",
  "4780": " squeezed",
  "4781": " impressed",
  "4782": " flood",
  "4783": " bouncing",
  "4784": "Alice",
  "4785": " rabbits",
  "4786": "ges",
  "4787": " badly",
  "4788": "..",
  "4789": " warn",
  "4790": " leather",
  "4791": " tug",
  "4792": " expect",
  "4793": " news",
  "4794": " tide",
  "4795": " Ted",
  "4796": " minute",
  "4797": " bears",
  "4798": " claws",
  "4799": " buzz",
  "4800": " sweetheart",
  "4801": " Sm",
  "4802": "yth",
  "4803": " nation",
  "4804": "Sh",
  "4805": "ythm",
  "4806": " vacation",
  "4807": " hist",
  "4808": " heat",
  "4809": " strawberries",
  "4810": " observe",
  "4811": " explored",
  "4812": " settle",
  "4813": " sandcastle",
  "4814": " yawn",
  "4815": " history",
  "4816": " Lilly",
  "4817": " Lola",
  "4818": "mare",
  "4819": " Mummy",
  "4820": " Sque",
  "4821": "ially",
  "4822": "inking",
  "4823": " believed",
  "4824": " horses",
  "4825": "Daddy",
  "4826": " Hoppy",
  "4827": " checked",
  "4828": " Mandy",
  "4829": " tour",
  "4830": " network",
  "4831": " cheek",
  "4832": " Under",
  "4833": " offer",
  "4834": " easily",
  "4835": " placed",
  "4836": "spec",
  "4837": " spots",
  "4838": " snowball",
  "4839": "ween",
  "4840": "men",
  "4841": " energy",
  "4842": " Bee",
  "4843": " imagination",
  "4844": " blueberry",
  "4845": "otten",
  "4846": " between",
  "4847": "specially",
  "4848": " Gigi",
  "4849": "izes",
  "4850": " daisy",
  "4851": " waving",
  "4852": "reeze",
  "4853": "reat",
  "4854": " vroom",
  "4855": " soak",
  "4856": " safari",
  "4857": " rhythm",
  "4858": " massage",
  "4859": " stomach",
  "4860": " baking",
  "4861": "quake",
  "4862": " nightmare",
  "4863": " insisted",
  "4864": " blowing",
  "4865": " entered",
  "4866": "Before",
  "4867": " stair",
  "4868": " palm",
  "4869": " beauty",
  "4870": " twisted",
  "4871": " bother",
  "4872": " writing",
  "4873": " scoop",
  "4874": " prunes",
  "4875": " brain",
  "4876": " ing",
  "4877": "ipment",
  "4878": " poppy",
  "4879": " hills",
  "4880": "noon",
  "4881": " afternoon",
  "4882": " equipment",
  "4883": " especially",
  "4884": " Ru",
  "4885": "hest",
  "4886": " sir",
  "4887": " pad",
  "4888": " See",
  "4889": " ingred",
  "4890": " calls",
  "4891": " ingredient",
  "4892": " Fox",
  "4893": " earthquake",
  "4894": " ignored",
  "4895": " Snowy",
  "4896": " burned",
  "4897": " nobody",
  "4898": "mble",
  "4899": " sty",
  "4900": "apa",
  "4901": " sew",
  "4902": "isty",
  "4903": "xygen",
  "4904": " hearts",
  "4905": " lear",
  "4906": " learnt",
  "4907": " lemonade",
  "4908": " increase",
  "4909": "illie",
  "4910": "Jenny",
  "4911": " gaz",
  "4912": " backpack",
  "4913": " mailman",
  "4914": " whistled",
  "4915": " pedal",
  "4916": " Sk",
  "4917": "Fred",
  "4918": " shopkeeper",
  "4919": "ffic",
  "4920": " permit",
  "4921": " tremble",
  "4922": " yucky",
  "4923": "anges",
  "4924": " moves",
  "4925": " introduce",
  "4926": " lemons",
  "4927": " crash",
  "4928": " beans",
  "4929": " floated",
  "4930": "edn",
  "4931": "ednesday",
  "4932": "ittens",
  "4933": "Welcome",
  "4934": " planned",
  "4935": " strike",
  "4936": " traffic",
  "4937": " include",
  "4938": " slap",
  "4939": " racing",
  "4940": " Lucky",
  "4941": "resses",
  "4942": " wisdom",
  "4943": " pur",
  "4944": " wags",
  "4945": " Finny",
  "4946": "laimed",
  "4947": " George",
  "4948": " luck",
  "4949": " following",
  "4950": " price",
  "4951": "ecting",
  "4952": " mama",
  "4953": " pitch",
  "4954": " below",
  "4955": " Elly",
  "4956": " Have",
  "4957": "Le",
  "4958": " weight",
  "4959": " exclaimed",
  "4960": "house",
  "4961": " buried",
  "4962": " follows",
  "4963": " comf",
  "4964": " recognize",
  "4965": " ingredients",
  "4966": " \n",
  "4967": " furt",
  "4968": "tain",
  "4969": "mem",
  "4970": " candles",
  "4971": "eme",
  "4972": "Mimi",
  "4973": " marbles",
  "4974": "riage",
  "4975": "unday",
  "4976": "emember",
  "4977": "eration",
  "4978": " Alex",
  "4979": " apart",
  "4980": " Wednesday",
  "4981": " growled",
  "4982": "uct",
  "4983": "ores",
  "4984": " conf",
  "4985": " teaching",
  "4986": " hopes",
  "4987": " folded",
  "4988": " closely",
  "4989": " Finn",
  "4990": " Who",
  "4991": " heel",
  "4992": " Su",
  "4993": " Sunday",
  "4994": " encourage",
  "4995": " Paul",
  "4996": " Owl",
  "4997": " zigzag",
  "4998": " pulling",
  "4999": " bouncy",
  "5000": " further",
  "5001": " chewed",
  "5002": " digging",
  "5003": " winning",
  "5004": "Woof",
  "5005": "With",
  "5006": " dresses",
  "5007": " image",
  "5008": "rec",
  "5009": "cery",
  "5010": " encoura",
  "5011": " shouting",
  "5012": " grocery",
  "5013": " twisty",
  "5014": " peanuts",
  "5015": " puzzles",
  "5016": "bbing",
  "5017": " Dog",
  "5018": "look",
  "5019": " scrat",
  "5020": " chores",
  "5021": " whisper",
  "5022": " Is",
  "5023": " spike",
  "5024": " Froggy",
  "5025": " cape",
  "5026": " snail",
  "5027": " acorns",
  "5028": " worms",
  "5029": "hood",
  "5030": " deeper",
  "5031": " urge",
  "5032": "ifi",
  "5033": " exper",
  "5034": " Whenever",
  "5035": " Tilly",
  "5036": " Squeaky",
  "5037": " Grace",
  "5038": " planted",
  "5039": " attention",
  "5040": "ecture",
  "5041": " exercise",
  "5042": " Danny",
  "5043": " cub",
  "5044": " operation",
  "5045": " underground",
  "5046": " hon",
  "5047": " agre",
  "5048": " quite",
  "5049": " creatures",
  "5050": " simp",
  "5051": "Everyone",
  "5052": " struggle",
  "5053": "oral",
  "5054": " Mittens",
  "5055": "ddy",
  "5056": " blood",
  "5057": " lecture",
  "5058": " washing",
  "5059": " hurting",
  "5060": " vanished",
  "5061": " gifts",
  "5062": " dressed",
  "5063": " invitation",
  "5064": " solved",
  "5065": " licks",
  "5066": " snuggled",
  "5067": " Sharing",
  "5068": "ippy",
  "5069": " ble",
  "5070": " marriage",
  "5071": " quietly",
  "5072": " warning",
  "5073": " jazz",
  "5074": " breathe",
  "5075": "reci",
  "5076": " elephants",
  "5077": " sizes",
  "5078": " dried",
  "5079": " fallen",
  "5080": " landscape",
  "5081": "ories",
  "5082": " sprink",
  "5083": " neighbour",
  "5084": " mice",
  "5085": "uesday",
  "5086": " appreci",
  "5087": " Sophie",
  "5088": " Joey",
  "5089": " –",
  "5090": " eagerly",
  "5091": " sailing",
  "5092": " Coco",
  "5093": " paused",
  "5094": "ips",
  "5095": " counter",
  "5096": " Good",
  "5097": " Bounce",
  "5098": " Penny",
  "5099": " worth",
  "5100": "looking",
  "5101": " Rock",
  "5102": " oxygen",
  "5103": "Because",
  "5104": " release",
  "5105": " shined",
  "5106": "Not",
  "5107": "pted",
  "5108": " reaches",
  "5109": " balan",
  "5110": " Zara",
  "5111": "isses",
  "5112": " oh",
  "5113": " kisses",
  "5114": " style",
  "5115": " bricks",
  "5116": " plays",
  "5117": " glo",
  "5118": " Tuesday",
  "5119": " ideas",
  "5120": "sed",
  "5121": " inst",
  "5122": " wob",
  "5123": " fireworks",
  "5124": "Bella",
  "5125": "iggly",
  "5126": "ucked",
  "5127": " seeing",
  "5128": " flap",
  "5129": "ops",
  "5130": " accepted",
  "5131": "right",
  "5132": " Pip",
  "5133": "Today",
  "5134": " blink",
  "5135": "mm",
  "5136": " Ros",
  "5137": " tremb",
  "5138": "These",
  "5139": " muddy",
  "5140": " memory",
  "5141": " married",
  "5142": " tomatoes",
  "5143": " exit",
  "5144": " Annie",
  "5145": " wagging",
  "5146": " fash",
  "5147": "Remy",
  "5148": " Charlie",
  "5149": " wandered",
  "5150": "unately",
  "5151": "ipping",
  "5152": " gloves",
  "5153": " captain",
  "5154": " pillows",
  "5155": " receive",
  "5156": " resp",
  "5157": " Pinky",
  "5158": " during",
  "5159": " Everything",
  "5160": "etch",
  "5161": " web",
  "5162": " petals",
  "5163": " watered",
  "5164": " Eventually",
  "5165": " si",
  "5166": "ived",
  "5167": " manage",
  "5168": " pinched",
  "5169": " brings",
  "5170": "ux",
  "5171": " vanish",
  "5172": " cakes",
  "5173": " fashion",
  "5174": " Bluey",
  "5175": " printer",
  "5176": " destroyed",
  "5177": " treasures",
  "5178": "nce",
  "5179": " allow",
  "5180": "ups",
  "5181": " hadn",
  "5182": " worse",
  "5183": " Fifi",
  "5184": "Surpr",
  "5185": " vel",
  "5186": " hits",
  "5187": " bur",
  "5188": "uxu",
  "5189": " velvet",
  "5190": " appear",
  "5191": " disagree",
  "5192": "do",
  "5193": " catching",
  "5194": " scattered",
  "5195": " Ro",
  "5196": " memories",
  "5197": " sorts",
  "5198": " Papa",
  "5199": " hers",
  "5200": " scolded",
  "5201": " signs",
  "5202": " pears",
  "5203": " oranges",
  "5204": " bones",
  "5205": " rang",
  "5206": " snapped",
  "5207": " sits",
  "5208": " seats",
  "5209": "Bl",
  "5210": " gazed",
  "5211": " raised",
  "5212": " Maria",
  "5213": " zipped",
  "5214": " pies",
  "5215": " prints",
  "5216": " shot",
  "5217": " sliding",
  "5218": " God",
  "5219": " fro",
  "5220": " easier",
  "5221": "ssible",
  "5222": " skills",
  "5223": " climbs",
  "5224": " twirled",
  "5225": "ccer",
  "5226": " blankets",
  "5227": "ester",
  "5228": " forgotten",
  "5229": " applaud",
  "5230": " baked",
  "5231": "Yum",
  "5232": "esterday",
  "5233": " difference",
  "5234": "orted",
  "5235": " luxu",
  "5236": " golden",
  "5237": "ising",
  "5238": " kitty",
  "5239": " Tw",
  "5240": " cutting",
  "5241": " season",
  "5242": "aggie",
  "5243": " nowhere",
  "5244": " crow",
  "5245": " soccer",
  "5246": " dared",
  "5247": " bites",
  "5248": " Henry",
  "5249": " Harry",
  "5250": "anny",
  "5251": " celebrated",
  "5252": " lung",
  "5253": "choo",
  "5254": "chie",
  "5255": " straight",
  "5256": " unlocked",
  "5257": "sters",
  "5258": " sorting",
  "5259": " collected",
  "5260": " bleed",
  "5261": "aped",
  "5262": " welcomed",
  "5263": " visited",
  "5264": " spoons",
  "5265": " ours",
  "5266": " stitch",
  "5267": " jogging",
  "5268": "Surprise",
  "5269": "medi",
  "5270": " emer",
  "5271": " Spark",
  "5272": "mediately",
  "5273": " isn",
  "5274": " tong",
  "5275": " trave",
  "5276": " winner",
  "5277": "umble",
  "5278": " since",
  "5279": " ruin",
  "5280": " prett",
  "5281": "Ok",
  "5282": "Moral",
  "5283": " Tony",
  "5284": " attached",
  "5285": " weeping",
  "5286": " marching",
  "5287": " luxury",
  "5288": " simple",
  "5289": " Each",
  "5290": " shouldn",
  "5291": " guessed",
  "5292": " zero",
  "5293": " created",
  "5294": " stuffed",
  "5295": " pets",
  "5296": "ction",
  "5297": " waist",
  "5298": " famil",
  "5299": " urged",
  "5300": " bowed",
  "5301": " selling",
  "5302": " floating",
  "5303": "rr",
  "5304": " Smith",
  "5305": " bye",
  "5306": " King",
  "5307": " vict",
  "5308": " kingdom",
  "5309": " olives",
  "5310": " kicking",
  "5311": " Wiggly",
  "5312": " punished",
  "5313": " Liz",
  "5314": " Baby",
  "5315": "sit",
  "5316": " toes",
  "5317": " An",
  "5318": " grant",
  "5319": " muscles",
  "5320": " jewels",
  "5321": " Rosie",
  "5322": " beds",
  "5323": " melted",
  "5324": "Goodbye",
  "5325": " slice",
  "5326": " grin",
  "5327": " understanding",
  "5328": " collection",
  "5329": " tore",
  "5330": " measured",
  "5331": "aker",
  "5332": " cras",
  "5333": "omeday",
  "5334": "iers",
  "5335": " trapped",
  "5336": " lined",
  "5337": "'ve",
  "5338": " acted",
  "5339": "fortunately",
  "5340": " encouraged",
  "5341": "va",
  "5342": " Sandy",
  "5343": " received",
  "5344": " waffles",
  "5345": " Before",
  "5346": " Wally",
  "5347": " west",
  "5348": " meow",
  "5349": "ents",
  "5350": " patterns",
  "5351": "rin",
  "5352": "ino",
  "5353": "eath",
  "5354": " brus",
  "5355": " mouths",
  "5356": "kins",
  "5357": "ring",
  "5358": " Kate",
  "5359": "Meow",
  "5360": " peaches",
  "5361": " breeze",
  "5362": "aded",
  "5363": "une",
  "5364": " printed",
  "5365": " soldiers",
  "5366": " someday",
  "5367": " potatoes",
  "5368": " pupil",
  "5369": "umes",
  "5370": " Millie",
  "5371": " drinks",
  "5372": " shed",
  "5373": " experience",
  "5374": " Tuna",
  "5375": "eep",
  "5376": " presents",
  "5377": " firef",
  "5378": " Ruby",
  "5379": " surround",
  "5380": " none",
  "5381": "osed",
  "5382": "ann",
  "5383": " voices",
  "5384": " drinking",
  "5385": " Uncle",
  "5386": "ishing",
  "5387": " relaxed",
  "5388": " victory",
  "5389": "cus",
  "5390": " paints",
  "5391": " breaking",
  "5392": "eve",
  "5393": " hurried",
  "5394": "ission",
  "5395": " twink",
  "5396": " tongue",
  "5397": " recor",
  "5398": " costumes",
  "5399": " flat",
  "5400": " mentioned",
  "5401": " begged",
  "5402": " teasing",
  "5403": " whistling",
  "5404": " fetch",
  "5405": " permission",
  "5406": " sip",
  "5407": " disagreed",
  "5408": " pearl",
  "5409": "akes",
  "5410": " stro",
  "5411": "vest",
  "5412": " These",
  "5413": " esc",
  "5414": " appro",
  "5415": " skipping",
  "5416": " fishing",
  "5417": " May",
  "5418": "Leo",
  "5419": " highest",
  "5420": " pra",
  "5421": " watches",
  "5422": " sorted",
  "5423": " ringing",
  "5424": "ship",
  "5425": " tonight",
  "5426": " Bo",
  "5427": " opin",
  "5428": " lets",
  "5429": "icing",
  "5430": " Qu",
  "5431": " perfectly",
  "5432": " shadows",
  "5433": " immediately",
  "5434": " herbs",
  "5435": " warmth",
  "5436": " spit",
  "5437": " remained",
  "5438": "ther",
  "5439": " Its",
  "5440": "walk",
  "5441": "Bobby",
  "5442": "irring",
  "5443": "Jen",
  "5444": " sneak",
  "5445": " six",
  "5446": " lips",
  "5447": " kneeled",
  "5448": "Blue",
  "5449": " contest",
  "5450": " Che",
  "5451": "utter",
  "5452": " cartoons",
  "5453": " sidewalk",
  "5454": " colours",
  "5455": " stamps",
  "5456": " ago",
  "5457": "Ha",
  "5458": " Toto",
  "5459": " Boo",
  "5460": " Follow",
  "5461": " east",
  "5462": " headed",
  "5463": "oved",
  "5464": "\",",
  "5465": " strang",
  "5466": " ladyb",
  "5467": " fed",
  "5468": " supposed",
  "5469": " roots",
  "5470": " lick",
  "5471": " crunch",
  "5472": " mixing",
  "5473": " works",
  "5474": " decorations",
  "5475": " melting",
  "5476": " known",
  "5477": " emergen",
  "5478": "Mandy",
  "5479": " rested",
  "5480": " Ab",
  "5481": " lines",
  "5482": " Suzy",
  "5483": " lily",
  "5484": " Jul",
  "5485": " instr",
  "5486": " laid",
  "5487": " Gr",
  "5488": " succeeded",
  "5489": " cones",
  "5490": " wiggle",
  "5491": "ety",
  "5492": " bang",
  "5493": "sing",
  "5494": " shock",
  "5495": " setting",
  "5496": " Slow",
  "5497": " studied",
  "5498": " strangers",
  "5499": " Rocky",
  "5500": "Really",
  "5501": " twigs",
  "5502": " brid",
  "5503": " theirs",
  "5504": " Dr",
  "5505": " girls",
  "5506": "boo",
  "5507": "!\",",
  "5508": " screams",
  "5509": " lands",
  "5510": " ordered",
  "5511": " stirring",
  "5512": " moments",
  "5513": " fields",
  "5514": " alright",
  "5515": " stealing",
  "5516": "Andy",
  "5517": " rul",
  "5518": " bravely",
  "5519": "avid",
  "5520": " Both",
  "5521": " mister",
  "5522": "!'",
  "5523": " invest",
  "5524": " scratched",
  "5525": " playtime",
  "5526": " ripped",
  "5527": " investig",
  "5528": " tucked",
  "5529": " resting",
  "5530": " burning",
  "5531": "ishes",
  "5532": " Clara",
  "5533": " Chicky",
  "5534": " bridges",
  "5535": " officer",
  "5536": "please",
  "5537": "Sammy",
  "5538": "Bird",
  "5539": "abies",
  "5540": " settled",
  "5541": " matched",
  "5542": " achie",
  "5543": " tex",
  "5544": " texture",
  "5545": "Happy",
  "5546": " waits",
  "5547": " turning",
  "5548": " Sky",
  "5549": "Peter",
  "5550": "ored",
  "5551": " trembling",
  "5552": "isten",
  "5553": " nails",
  "5554": "atie",
  "5555": " muffins",
  "5556": " Someone",
  "5557": "ids",
  "5558": " escaped",
  "5559": " James",
  "5560": " piles",
  "5561": " investigate",
  "5562": "osity",
  "5563": " broom",
  "5564": " ladybug",
  "5565": " sore",
  "5566": " Pepper",
  "5567": " appreciate",
  "5568": " admir",
  "5569": " threat",
  "5570": " babies",
  "5571": " silence",
  "5572": " sisters",
  "5573": " emergency",
  "5574": " area",
  "5575": "ides",
  "5576": " dads",
  "5577": " answers",
  "5578": " pupp",
  "5579": " keys",
  "5580": " chewing",
  "5581": " slapped",
  "5582": " wiz",
  "5583": " importance",
  "5584": "Boo",
  "5585": " served",
  "5586": " Hop",
  "5587": " safety",
  "5588": "izing",
  "5589": "Would",
  "5590": "Bu",
  "5591": " sparkle",
  "5592": " touching",
  "5593": " Later",
  "5594": " soared",
  "5595": "igail",
  "5596": " sings",
  "5597": " hen",
  "5598": "allen",
  "5599": "Ella",
  "5600": "bers",
  "5601": "antly",
  "5602": "Momo",
  "5603": " Dino",
  "5604": " keeps",
  "5605": " amazement",
  "5606": " challen",
  "5607": " twin",
  "5608": " hesit",
  "5609": " revealed",
  "5610": "achel",
  "5611": " item",
  "5612": " dire",
  "5613": " soaked",
  "5614": "zing",
  "5615": " writ",
  "5616": " foods",
  "5617": " rides",
  "5618": " dinosaurs",
  "5619": " recorded",
  "5620": " tickle",
  "5621": " inch",
  "5622": " Zigzag",
  "5623": " Me",
  "5624": " wizard",
  "5625": " vet",
  "5626": " trips",
  "5627": " glowed",
  "5628": " Frog",
  "5629": "Mmm",
  "5630": " hi",
  "5631": " beamed",
  "5632": " quack",
  "5633": " curled",
  "5634": " hated",
  "5635": " wink",
  "5636": " shopping",
  "5637": " eats",
  "5638": "Eventually",
  "5639": " Bug",
  "5640": " praised",
  "5641": " wooden",
  "5642": " bringing",
  "5643": " mittens",
  "5644": " studying",
  "5645": " guy",
  "5646": " brushes",
  "5647": " spaceship",
  "5648": " gust",
  "5649": " crawling",
  "5650": " Something",
  "5651": "Cat",
  "5652": " ruler",
  "5653": " flav",
  "5654": " downstairs",
  "5655": " shooting",
  "5656": " tastes",
  "5657": " napping",
  "5658": " sprinkles",
  "5659": " marks",
  "5660": " cuddled",
  "5661": " dot",
  "5662": "hello",
  "5663": "plash",
  "5664": " fut",
  "5665": "ales",
  "5666": "aved",
  "5667": " future",
  "5668": " monsters",
  "5669": " collecting",
  "5670": " measuring",
  "5671": " Happy",
  "5672": "'.",
  "5673": " families",
  "5674": " Out",
  "5675": " First",
  "5676": " Mo",
  "5677": " thrill",
  "5678": " oat",
  "5679": "irts",
  "5680": " result",
  "5681": "Jake",
  "5682": " approached",
  "5683": " Rabbit",
  "5684": " crunchy",
  "5685": "act",
  "5686": "Un",
  "5687": "ding",
  "5688": " remem",
  "5689": " bleeding",
  "5690": " remembers",
  "5691": " nicer",
  "5692": " beat",
  "5693": " sneaky",
  "5694": " disturbed",
  "5695": " leader",
  "5696": " scaring",
  "5697": "Or",
  "5698": "hind",
  "5699": " peel",
  "5700": " Hope",
  "5701": " firemen",
  "5702": " neighborhood",
  "5703": " Star",
  "5704": " grey",
  "5705": " Not",
  "5706": " motion",
  "5707": " noon",
  "5708": " possible",
  "5709": "Emily",
  "5710": "Somet",
  "5711": " apologized",
  "5712": "ues",
  "5713": " weighed",
  "5714": "Cl",
  "5715": " Did",
  "5716": " tickets",
  "5717": " naps",
  "5718": " loose",
  "5719": " pride",
  "5720": " youth",
  "5721": " swims",
  "5722": "ped",
  "5723": " strings",
  "5724": " recognized",
  "5725": " siren",
  "5726": " poking",
  "5727": "fied",
  "5728": " Ho",
  "5729": "cious",
  "5730": "elvet",
  "5731": " tricked",
  "5732": " wonders",
  "5733": " gained",
  "5734": "ha",
  "5735": " wanting",
  "5736": " crashed",
  "5737": " obe",
  "5738": " seesaw",
  "5739": " worker",
  "5740": "unnies",
  "5741": "ls",
  "5742": "oming",
  "5743": " draws",
  "5744": " scooped",
  "5745": ".'",
  "5746": " zooming",
  "5747": " opinion",
  "5748": " yelling",
  "5749": " prepared",
  "5750": " grinned",
  "5751": " Slowly",
  "5752": " awe",
  "5753": " poems",
  "5754": " doggy",
  "5755": " acting",
  "5756": " Beep",
  "5757": " happiest",
  "5758": " chef",
  "5759": " sneaked",
  "5760": " respons",
  "5761": " eff",
  "5762": " Always",
  "5763": " Lizzy",
  "5764": " owned",
  "5765": " bunnies",
  "5766": " anytime",
  "5767": " struck",
  "5768": " pedals",
  "5769": "oys",
  "5770": " knelt",
  "5771": "ena",
  "5772": "Ollie",
  "5773": " secrets",
  "5774": " pause",
  "5775": " decorated",
  "5776": " horns",
  "5777": " agreement",
  "5778": " Squ",
  "5779": "ided",
  "5780": " frost",
  "5781": " tallest",
  "5782": " obey",
  "5783": "Remember",
  "5784": "riends",
  "5785": "ogo",
  "5786": " Stop",
  "5787": " gigg",
  "5788": "Have",
  "5789": " decides",
  "5790": " Once",
  "5791": " behaved",
  "5792": " tugged",
  "5793": " sides",
  "5794": " woof",
  "5795": " slim",
  "5796": "zen",
  "5797": " goodnight",
  "5798": " keeper",
  "5799": " sparkling",
  "5800": " chirped",
  "5801": " precious",
  "5802": "mother",
  "5803": "uggling",
  "5804": "ien",
  "5805": "lier",
  "5806": "Tr",
  "5807": " repeated",
  "5808": " claps",
  "5809": "indy",
  "5810": "affes",
  "5811": " snowballs",
  "5812": " contain",
  "5813": "rs",
  "5814": " Ray",
  "5815": " ourselves",
  "5816": "allow",
  "5817": " giraffes",
  "5818": " balancing",
  "5819": " kindly",
  "5820": " spending",
  "5821": " writes",
  "5822": "ays",
  "5823": "ppers",
  "5824": " Like",
  "5825": "omas",
  "5826": " prop",
  "5827": " hissed",
  "5828": "First",
  "5829": " frozen",
  "5830": " frosting",
  "5831": " effort",
  "5832": " buzzing",
  "5833": " struggled",
  "5834": "oh",
  "5835": " Steve",
  "5836": " admiring",
  "5837": " rele",
  "5838": "iggy",
  "5839": " sweeties",
  "5840": " Velvet",
  "5841": " slimy",
  "5842": " brushed",
  "5843": " Am",
  "5844": " bloomed",
  "5845": "Susie",
  "5846": " polished",
  "5847": " Zoe",
  "5848": "arth",
  "5849": " comfy",
  "5850": " boo",
  "5851": " staying",
  "5852": " rubbing",
  "5853": "Ducky",
  "5854": " rocking",
  "5855": " pockets",
  "5856": " thrilled",
  "5857": " beside",
  "5858": " comple",
  "5859": " Aunt",
  "5860": " Maggie",
  "5861": "Ah",
  "5862": " eight",
  "5863": "urry",
  "5864": "isdom",
  "5865": " machines",
  "5866": " earlier",
  "5867": " yesterday",
  "5868": " seems",
  "5869": " rust",
  "5870": " Keep",
  "5871": "Sp",
  "5872": " traveled",
  "5873": " folding",
  "5874": " boom",
  "5875": " cracked",
  "5876": "ities",
  "5877": " hugging",
  "5878": " radishes",
  "5879": " Stitch",
  "5880": " opening",
  "5881": " loving",
  "5882": " circus",
  "5883": " surrounded",
  "5884": " curiosity",
  "5885": " Rachel",
  "5886": " spraying",
  "5887": " demanded",
  "5888": "anted",
  "5889": " paintings",
  "5890": "amie",
  "5891": " Green",
  "5892": " removed",
  "5893": " gaze",
  "5894": " honk",
  "5895": " pebbles",
  "5896": " zookeeper",
  "5897": " hardly",
  "5898": " catches",
  "5899": "edding",
  "5900": " sting",
  "5901": " stripes",
  "5902": " powers",
  "5903": " loaded",
  "5904": " Pippa",
  "5905": "Sometimes",
  "5906": " splashes",
  "5907": " pots",
  "5908": " petted",
  "5909": " matching",
  "5910": " David",
  "5911": "Thanks",
  "5912": " toss",
  "5913": " stare",
  "5914": " belly",
  "5915": "Yummy",
  "5916": "ibb",
  "5917": " whatever",
  "5918": " apologize",
  "5919": " rocked",
  "5920": " comforted",
  "5921": " Bree",
  "5922": " decision",
  "5923": " ribbons",
  "5924": " Joy",
  "5925": " Birdie",
  "5926": "ern",
  "5927": " struggling",
  "5928": " expected",
  "5929": " deser",
  "5930": " steep",
  "5931": "wh",
  "5932": " protected",
  "5933": " neighbors",
  "5934": " smiley",
  "5935": " chases",
  "5936": "During",
  "5937": " granted",
  "5938": " crumb",
  "5939": " Mat",
  "5940": " purred",
  "5941": " diving",
  "5942": " sadness",
  "5943": "Whiskers",
  "5944": " organizing",
  "5945": "lowers",
  "5946": " eagle",
  "5947": " heroes",
  "5948": " dipped",
  "5949": " sunlight",
  "5950": " lied",
  "5951": " pastels",
  "5952": " Frank",
  "5953": "Ex",
  "5954": " safer",
  "5955": " roads",
  "5956": " scru",
  "5957": " argued",
  "5958": " Milly",
  "5959": " goals",
  "5960": " Water",
  "5961": " discovery",
  "5962": " Abigail",
  "5963": " villag",
  "5964": " peered",
  "5965": "Ro",
  "5966": " Bouncy",
  "5967": "use",
  "5968": "loe",
  "5969": " tim",
  "5970": " dragons",
  "5971": " buildings",
  "5972": " buckets",
  "5973": " parties",
  "5974": " beard",
  "5975": " wedding",
  "5976": "Rex",
  "5977": " flutter",
  "5978": " planets",
  "5979": " ann",
  "5980": " Robby",
  "5981": " polishing",
  "5982": " fasc",
  "5983": "ira",
  "5984": " released",
  "5985": " Chr",
  "5986": " crabs",
  "5987": " Gogo",
  "5988": " tails",
  "5989": " Watch",
  "5990": " sausages",
  "5991": " argu",
  "5992": " contro",
  "5993": " bottles",
  "5994": " wiggled",
  "5995": " teased",
  "5996": "uke",
  "5997": " arguing",
  "5998": " sled",
  "5999": " padd",
  "6000": " dragged",
  "6001": " Car",
  "6002": " roaring",
  "6003": " clearing",
  "6004": " shirts",
  "6005": " movies",
  "6006": " gathering",
  "6007": " airpl",
  "6008": " wid",
  "6009": "joyed",
  "6010": " teaches",
  "6011": " spiders",
  "6012": " limes",
  "6013": " Remember",
  "6014": " Dare",
  "6015": " overjoyed",
  "6016": " actually",
  "6017": " sighs",
  "6018": " continue",
  "6019": " cuddle",
  "6020": " soaring",
  "6021": " smallest",
  "6022": " Jess",
  "6023": " drives",
  "6024": " Ju",
  "6025": " sparkles",
  "6026": " rip",
  "6027": " situ",
  "6028": " cubes",
  "6029": " refres",
  "6030": " talent",
  "6031": " challenge",
  "6032": " Olly",
  "6033": " grandmother",
  "6034": " Splash",
  "6035": " pouring",
  "6036": "umm",
  "6037": " pretends",
  "6038": " fascin",
  "6039": " cuts",
  "6040": " shrug",
  "6041": " quarreling",
  "6042": " peppers",
  "6043": " bank",
  "6044": " shivered",
  "6045": " mane",
  "6046": " dusty",
  "6047": " Jenn",
  "6048": "ley",
  "6049": " wondering",
  "6050": " villagers",
  "6051": " stretching",
  "6052": "njoy",
  "6053": "ib",
  "6054": " weeks",
  "6055": " wherever",
  "6056": " darker",
  "6057": "jam",
  "6058": "Tiny",
  "6059": "sses",
  "6060": " X",
  "6061": " rings",
  "6062": " onwards",
  "6063": " Katie",
  "6064": " united",
  "6065": "Achoo",
  "6066": " bead",
  "6067": " Everyday",
  "6068": " Being",
  "6069": " prettiest",
  "6070": "Johnny",
  "6071": " caut",
  "6072": " realize",
  "6073": " company",
  "6074": " penguins",
  "6075": "annah",
  "6076": "Luna",
  "6077": "Fr",
  "6078": " Spring",
  "6079": " bedtime",
  "6080": " completed",
  "6081": " Wisdom",
  "6082": " Leave",
  "6083": "”.",
  "6084": " knights",
  "6085": " flags",
  "6086": " Je",
  "6087": " Because",
  "6088": " playroom",
  "6089": " Prin",
  "6090": " actions",
  "6091": " Zero",
  "6092": " learns",
  "6093": " gotten",
  "6094": " patience",
  "6095": "inda",
  "6096": "dam",
  "6097": " kites",
  "6098": " responsible",
  "6099": " fears",
  "6100": " destination",
  "6101": " wires",
  "6102": " reply",
  "6103": " wrist",
  "6104": " dam",
  "6105": "aws",
  "6106": " packing",
  "6107": " mountains",
  "6108": " fault",
  "6109": " applauded",
  "6110": " scrubbed",
  "6111": " ma",
  "6112": " crept",
  "6113": " Ava",
  "6114": "Uh",
  "6115": " Earth",
  "6116": " satis",
  "6117": " third",
  "6118": " phot",
  "6119": " pencils",
  "6120": " wins",
  "6121": " sticking",
  "6122": " baker",
  "6123": " visiting",
  "6124": " wound",
  "6125": " uses",
  "6126": " peas",
  "6127": " reminder",
  "6128": " control",
  "6129": "ashed",
  "6130": "Grandpa",
  "6131": " joking",
  "6132": " awake",
  "6133": " instruct",
  "6134": " staring",
  "6135": " healed",
  "6136": " Put",
  "6137": "An",
  "6138": " hitting",
  "6139": " Fish",
  "6140": " screaming",
  "6141": " begin",
  "6142": "Rob",
  "6143": "uckily",
  "6144": " Friends",
  "6145": " Moo",
  "6146": "icorn",
  "6147": " helmets",
  "6148": "enty",
  "6149": " unicorn",
  "6150": "seek",
  "6151": " towels",
  "6152": "Silly",
  "6153": " Lou",
  "6154": " chips",
  "6155": "ica",
  "6156": " creation",
  "6157": " wasted",
  "6158": "bie",
  "6159": "Mar",
  "6160": " Behind",
  "6161": "laire",
  "6162": " masks",
  "6163": " items",
  "6164": " forgi",
  "6165": "ler",
  "6166": " firefight",
  "6167": " outdo",
  "6168": " lollipops",
  "6169": "Watch",
  "6170": " heav",
  "6171": " guns",
  "6172": " died",
  "6173": " Hippy",
  "6174": " seas",
  "6175": " glitter",
  "6176": "uddles",
  "6177": " arrive",
  "6178": " weren",
  "6179": " stole",
  "6180": " scales",
  "6181": " perched",
  "6182": " accom",
  "6183": " logs",
  "6184": " achieve",
  "6185": "die",
  "6186": " practicing",
  "6187": "ining",
  "6188": " whose",
  "6189": "Stay",
  "6190": " pumpkins",
  "6191": " instructions",
  "6192": " swoop",
  "6193": " batteries",
  "6194": " candies",
  "6195": " agrees",
  "6196": " project",
  "6197": " snakes",
  "6198": " chirping",
  "6199": "Benny",
  "6200": " shelves",
  "6201": " protecting",
  "6202": " parked",
  "6203": " exact",
  "6204": " Cra",
  "6205": " patiently",
  "6206": " activ",
  "6207": " videos",
  "6208": " shoulders",
  "6209": " blows",
  "6210": "hee",
  "6211": "Fo",
  "6212": " promises",
  "6213": "go",
  "6214": " dent",
  "6215": "usan",
  "6216": "uest",
  "6217": "jamas",
  "6218": " examined",
  "6219": " airplane",
  "6220": "Doggy",
  "6221": " roses",
  "6222": "ners",
  "6223": " accompl",
  "6224": " tasks",
  "6225": "Dave",
  "6226": " Hoot",
  "6227": "Poppy",
  "6228": " Bop",
  "6229": "Bunny",
  "6230": " beads",
  "6231": " bowls",
  "6232": " crumbs",
  "6233": "zes",
  "6234": " listens",
  "6235": " Love",
  "6236": " Catty",
  "6237": " Brownie",
  "6238": "Pete",
  "6239": " Ol",
  "6240": " dolphins",
  "6241": " cough",
  "6242": " bunch",
  "6243": " guest",
  "6244": "cakes",
  "6245": " requested",
  "6246": " remote",
  "6247": " improved",
  "6248": "anta",
  "6249": " reaching",
  "6250": " brand",
  "6251": "ayla",
  "6252": " alien",
  "6253": " Bye",
  "6254": "irm",
  "6255": " copy",
  "6256": " Sun",
  "6257": " cheering",
  "6258": " photos",
  "6259": " Julie",
  "6260": " Chew",
  "6261": "uggles",
  "6262": "Bad",
  "6263": " Jan",
  "6264": " Blink",
  "6265": "Time",
  "6266": " cans",
  "6267": " Cuddles",
  "6268": "...",
  "6269": " timer",
  "6270": " By",
  "6271": " replaced",
  "6272": "athy",
  "6273": " workers",
  "6274": " stern",
  "6275": " Enjoy",
  "6276": "aster",
  "6277": " neither",
  "6278": "Mike",
  "6279": " passing",
  "6280": " misses",
  "6281": " curtains",
  "6282": " confl",
  "6283": "Chirpy",
  "6284": " rainbows",
  "6285": " rubs",
  "6286": "George",
  "6287": "uctantly",
  "6288": " rolls",
  "6289": " patted",
  "6290": "ilo",
  "6291": " pajamas",
  "6292": " outdoors",
  "6293": "esome",
  "6294": "dies",
  "6295": " complaining",
  "6296": " Squirrel",
  "6297": "Lola",
  "6298": "Run",
  "6299": " puppet",
  "6300": " Princess",
  "6301": " closes",
  "6302": " beneath",
  "6303": " lap",
  "6304": " drums",
  "6305": " tune",
  "6306": " Beth",
  "6307": " Mouse",
  "6308": " filling",
  "6309": "Miss",
  "6310": "angled",
  "6311": " refuse",
  "6312": " Sorry",
  "6313": " sweat",
  "6314": " faced",
  "6315": " seven",
  "6316": " balanced",
  "6317": "eal",
  "6318": " rescued",
  "6319": "neath",
  "6320": "bl",
  "6321": " quacked",
  "6322": " Abby",
  "6323": "uded",
  "6324": "Paul",
  "6325": "istle",
  "6326": " awesome",
  "6327": " 1",
  "6328": " mission",
  "6329": " However",
  "6330": " guys",
  "6331": " conflict",
  "6332": " cautious",
  "6333": " vent",
  "6334": " observed",
  "6335": " cause",
  "6336": " introduc",
  "6337": " Thomas",
  "6338": " pastries",
  "6339": "  ",
  "6340": " Our",
  "6341": " exactly",
  "6342": " doctors",
  "6343": " rule",
  "6344": " becoming",
  "6345": " policeman",
  "6346": " mes",
  "6347": "uly",
  "6348": " rockets",
  "6349": "you",
  "6350": " Yes",
  "6351": " Dot",
  "6352": " fairies",
  "6353": "lay",
  "6354": " pout",
  "6355": " insist",
  "6356": " blooming",
  "6357": " tractor",
  "6358": " farther",
  "6359": " Sad",
  "6360": "avi",
  "6361": "Oops",
  "6362": "Great",
  "6363": " remembering",
  "6364": " included",
  "6365": "gers",
  "6366": " curly",
  "6367": "Zoom",
  "6368": "Fine",
  "6369": " teamwork",
  "6370": "zie",
  "6371": " fascinated",
  "6372": " wobbled",
  "6373": " slam",
  "6374": " truly",
  "6375": " helpers",
  "6376": " sights",
  "6377": " paddle",
  "6378": " stumble",
  "6379": " firm",
  "6380": "onn",
  "6381": "Henry",
  "6382": " Jilly",
  "6383": "acob",
  "6384": " caused",
  "6385": " prayer",
  "6386": " spong",
  "6387": " recording",
  "6388": "kelly",
  "6389": "ais",
  "6390": " traded",
  "6391": " starfish",
  "6392": " supplies",
  "6393": " thro",
  "6394": " pointy",
  "6395": " situation",
  "6396": " inviting",
  "6397": "eah",
  "6398": " neighbourhood",
  "6399": " everyday",
  "6400": " ornaments",
  "6401": " Ally",
  "6402": "inkle",
  "6403": " valued",
  "6404": " adding",
  "6405": "Some",
  "6406": " reluctantly",
  "6407": " dots",
  "6408": " stays",
  "6409": " tables",
  "6410": " prettier",
  "6411": " bare",
  "6412": " desert",
  "6413": " snowmen",
  "6414": " steady",
  "6415": " minerals",
  "6416": "araway",
  "6417": " thorn",
  "6418": "ody",
  "6419": " ast",
  "6420": " glasses",
  "6421": " faraway",
  "6422": "sm",
  "6423": " Get",
  "6424": " Foxy",
  "6425": " swooped",
  "6426": " Welcome",
  "6427": " Two",
  "6428": " Sure",
  "6429": " unf",
  "6430": " forks",
  "6431": " usually",
  "6432": " usual",
  "6433": "Polly",
  "6434": " dar",
  "6435": " Jamie",
  "6436": " winked",
  "6437": " sneezing",
  "6438": " solut",
  "6439": " loading",
  "6440": " sponge",
  "6441": " Quick",
  "6442": " insects",
  "6443": " pans",
  "6444": "Dog",
  "6445": " sobbed",
  "6446": " Santa",
  "6447": "James",
  "6448": " growling",
  "6449": "arter",
  "6450": " throat",
  "6451": " Chloe",
  "6452": " noses",
  "6453": " Josh",
  "6454": " Dizzy",
  "6455": " scarves",
  "6456": " confident",
  "6457": " yourselves",
  "6458": " Want",
  "6459": "agull",
  "6460": " homework",
  "6461": " superheroes",
  "6462": " Stay",
  "6463": "Joey",
  "6464": "rrr",
  "6465": " smarter",
  "6466": " windy",
  "6467": " librarian",
  "6468": "Tina",
  "6469": " Kids",
  "6470": " gems",
  "6471": "Days",
  "6472": "ora",
  "6473": " underneath",
  "6474": " kicks",
  "6475": " knowled",
  "6476": " itchy",
  "6477": " knowledge",
  "6478": " jackets",
  "6479": " Skelly",
  "6480": " For",
  "6481": " surface",
  "6482": " untie",
  "6483": " comm",
  "6484": " Duck",
  "6485": " princesses",
  "6486": "...\"",
  "6487": "Those",
  "6488": "ido",
  "6489": "Hold",
  "6490": "Yeah",
  "6491": "coon",
  "6492": " squares",
  "6493": " Henny",
  "6494": " warnings",
  "6495": " giggling",
  "6496": "iar",
  "6497": " reads",
  "6498": "vin",
  "6499": "Our",
  "6500": " choo",
  "6501": "eed",
  "6502": "son",
  "6503": " younger",
  "6504": " clowns",
  "6505": " Mix",
  "6506": "Toby",
  "6507": " ropes",
  "6508": " biting",
  "6509": " crowd",
  "6510": " Unfortunately",
  "6511": "pite",
  "6512": "Danny",
  "6513": "True",
  "6514": " seagull",
  "6515": " paddled",
  "6516": " wears",
  "6517": " delivered",
  "6518": " Mon",
  "6519": " twirl",
  "6520": " onions",
  "6521": " buzzed",
  "6522": " complained",
  "6523": " bumpy",
  "6524": " stem",
  "6525": "Ew",
  "6526": " piggy",
  "6527": "Mrs",
  "6528": " Anne",
  "6529": " direction",
  "6530": "ouch",
  "6531": " dived",
  "6532": "Roar",
  "6533": " tangled",
  "6534": " startled",
  "6535": "ults",
  "6536": " leaning",
  "6537": "bbie",
  "6538": " Ant",
  "6539": " Jones",
  "6540": " badge",
  "6541": " Po",
  "6542": "Grace",
  "6543": " unp",
  "6544": " deal",
  "6545": "though",
  "6546": "Annie",
  "6547": " vowed",
  "6548": " napkins",
  "6549": "anes",
  "6550": " tickled",
  "6551": " risk",
  "6552": " covers",
  "6553": " pec",
  "6554": "Shh",
  "6555": " yells",
  "6556": " satisfied",
  "6557": "int",
  "6558": " knocks",
  "6559": " refreshed",
  "6560": "tuce",
  "6561": " Sc",
  "6562": "cuse",
  "6563": " cous",
  "6564": " arrows",
  "6565": "Maggie",
  "6566": " Whistle",
  "6567": "Pe",
  "6568": " wipes",
  "6569": " speaking",
  "6570": " lettuce",
  "6571": " guessing",
  "6572": "Unfortunately",
  "6573": " Quack",
  "6574": " ripe",
  "6575": " Susan",
  "6576": " hides",
  "6577": " choices",
  "6578": " Dodo",
  "6579": " Rover",
  "6580": "Buzz",
  "6581": " signed",
  "6582": " slower",
  "6583": " seeker",
  "6584": " introduced",
  "6585": " singer",
  "6586": " creating",
  "6587": " Matt",
  "6588": " froze",
  "6589": " cent",
  "6590": " joked",
  "6591": " squeal",
  "6592": " toaster",
  "6593": " explorers",
  "6594": "fit",
  "6595": " avo",
  "6596": "Sophie",
  "6597": " praying",
  "6598": " written",
  "6599": " discovering",
  "6600": " provided",
  "6601": " Dara",
  "6602": " refle",
  "6603": " Lion",
  "6604": "Excuse",
  "6605": " mushrooms",
  "6606": " Jeff",
  "6607": " Paws",
  "6608": " paying",
  "6609": " knees",
  "6610": "ences",
  "6611": " hider",
  "6612": " wandering",
  "6613": " Ash",
  "6614": " images",
  "6615": "Charlie",
  "6616": " stung",
  "6617": " Wink",
  "6618": " magnets",
  "6619": " barely",
  "6620": " behaving",
  "6621": " tipto",
  "6622": "?\",",
  "6623": " marked",
  "6624": "brush",
  "6625": " restored",
  "6626": " Dee",
  "6627": " leading",
  "6628": "lled",
  "6629": "Big",
  "6630": " chuck",
  "6631": "ados",
  "6632": " nine",
  "6633": " greet",
  "6634": "Teddy",
  "6635": " gears",
  "6636": " bravery",
  "6637": " Snuggles",
  "6638": "ky",
  "6639": " competition",
  "6640": " outfit",
  "6641": "oline",
  "6642": " wishing",
  "6643": " properly",
  "6644": " ventured",
  "6645": "tle",
  "6646": "aa",
  "6647": " muscle",
  "6648": " dances",
  "6649": " chat",
  "6650": " salty",
  "6651": " pens",
  "6652": "amb",
  "6653": " Betsy",
  "6654": " ranger",
  "6655": " Ziggy",
  "6656": " deserve",
  "6657": " however",
  "6658": "sequ",
  "6659": " matters",
  "6660": " darkness",
  "6661": " burst",
  "6662": " Fu",
  "6663": " rainy",
  "6664": " cobwebs",
  "6665": " ruining",
  "6666": " chefs",
  "6667": " consequ",
  "6668": " blocking",
  "6669": " bak",
  "6670": "usted",
  "6671": "itely",
  "6672": "sty",
  "6673": " scur",
  "6674": " vines",
  "6675": " fab",
  "6676": "abel",
  "6677": " fabric",
  "6678": " entire",
  "6679": " basement",
  "6680": " performed",
  "6681": " least",
  "6682": " Buggy",
  "6683": "Sn",
  "6684": " scratches",
  "6685": " heavier",
  "6686": " Claire",
  "6687": " mints",
  "6688": " twirling",
  "6689": " avocados",
  "6690": "However",
  "6691": " Linda",
  "6692": "rink",
  "6693": "fl",
  "6694": " scurried",
  "6695": " losing",
  "6696": " sunflowers",
  "6697": " Jenna",
  "6698": " rainco",
  "6699": " swords",
  "6700": "Tweet",
  "6701": " click",
  "6702": " \n ",
  "6703": "agic",
  "6704": " Laser",
  "6705": " silent",
  "6706": " jobs",
  "6707": " necklaces",
  "6708": " flames",
  "6709": " Luke",
  "6710": " relief",
  "6711": " Grumpy",
  "6712": " snat",
  "6713": " sewed",
  "6714": " rotting",
  "6715": "len",
  "6716": "Listen",
  "6717": "Follow",
  "6718": " tricky",
  "6719": "Jerry",
  "6720": " lighter",
  "6721": "ophia",
  "6722": " bows",
  "6723": " Skip",
  "6724": " exha",
  "6725": " solution",
  "6726": " consequences",
  "6727": "Alex",
  "6728": " Lena",
  "6729": " tires",
  "6730": " stain",
  "6731": "Beep",
  "6732": " unpacked",
  "6733": "Ab",
  "6734": " partic",
  "6735": "rance",
  "6736": " races",
  "6737": " pins",
  "6738": " bumps",
  "6739": " wraps",
  "6740": "aisies",
  "6741": " wow",
  "6742": " decorating",
  "6743": " backed",
  "6744": "cher",
  "6745": " dentist",
  "6746": " purr",
  "6747": " needles",
  "6748": " cautiously",
  "6749": " lifting",
  "6750": "izzie",
  "6751": " Pr",
  "6752": " accomplish",
  "6753": " triangles",
  "6754": " daisies",
  "6755": "ept",
  "6756": " hesitated",
  "6757": " annoy",
  "6758": " Those",
  "6759": " growls",
  "6760": " crackers",
  "6761": "oke",
  "6762": " stomped",
  "6763": " grabbing",
  "6764": " cott",
  "6765": " figured",
  "6766": " bodies",
  "6767": " mater",
  "6768": " buying",
  "6769": " Tree",
  "6770": " material",
  "6771": " Rolly",
  "6772": " Fido",
  "6773": " Adam",
  "6774": " swans",
  "6775": " ties",
  "6776": " gri",
  "6777": "vers",
  "6778": " grows",
  "6779": " sweets",
  "6780": " Goodbye",
  "6781": " El",
  "6782": " owners",
  "6783": " flavor",
  "6784": " cheeks",
  "6785": " Cathy",
  "6786": " suffering",
  "6787": " Jessie",
  "6788": "vroom",
  "6789": " fact",
  "6790": " groups",
  "6791": "cl",
  "6792": "bly",
  "6793": " forehead",
  "6794": " lungs",
  "6795": "Harry",
  "6796": " repa",
  "6797": " interested",
  "6798": " bakery",
  "6799": " Milo",
  "6800": " freed",
  "6801": "Lilly",
  "6802": "itches",
  "6803": " Nothing",
  "6804": " chuckled",
  "6805": "For",
  "6806": " swept",
  "6807": " conn",
  "6808": "?'",
  "6809": " thud",
  "6810": " exhausted",
  "6811": "Tw",
  "6812": " twinkling",
  "6813": " tapped",
  "6814": " nect",
  "6815": "rosty",
  "6816": " nectar",
  "6817": "elle",
  "6818": " feast",
  "6819": " darling",
  "6820": "indr",
  "6821": " Mad",
  "6822": " worries",
  "6823": " uns",
  "6824": " tunnels",
  "6825": " fuzzy",
  "6826": " repaired",
  "6827": " reason",
  "6828": " Trust",
  "6829": " Copper",
  "6830": " Ball",
  "6831": " activities",
  "6832": "lets",
  "6833": " pecked",
  "6834": " Hannah",
  "6835": " entrance",
  "6836": " Try",
  "6837": " raindr",
  "6838": " meals",
  "6839": " Listen",
  "6840": " particular",
  "6841": " completely",
  "6842": " mailed",
  "6843": "ctions",
  "6844": " nests",
  "6845": " waiter",
  "6846": " cuddly",
  "6847": " sense",
  "6848": "Ru",
  "6849": " Nana",
  "6850": " colored",
  "6851": "arky",
  "6852": " leap",
  "6853": "step",
  "6854": "band",
  "6855": " plenty",
  "6856": " peeking",
  "6857": " slammed",
  "6858": " Cara",
  "6859": "no",
  "6860": " players",
  "6861": " month",
  "6862": " budge",
  "6863": " Birthday",
  "6864": " Q",
  "6865": " scra",
  "6866": " includ",
  "6867": " forgets",
  "6868": " den",
  "6869": " handful",
  "6870": " Oliver",
  "6871": " mer",
  "6872": "ossible",
  "6873": " genie",
  "6874": " Christ",
  "6875": " stool",
  "6876": " talks",
  "6877": " Pup",
  "6878": " Suzie",
  "6879": " passports",
  "6880": " feeding",
  "6881": " films",
  "6882": " baths",
  "6883": " impossible",
  "6884": " determination",
  "6885": "May",
  "6886": " printing",
  "6887": "boat",
  "6888": " designed",
  "6889": " buses",
  "6890": " opp",
  "6891": "ueen",
  "6892": "lephant",
  "6893": " suitcase",
  "6894": " bars",
  "6895": " counts",
  "6896": " stolen",
  "6897": " spreading",
  "6898": " spikes",
  "6899": " Snap",
  "6900": " wiping",
  "6901": " steer",
  "6902": " lamb",
  "6903": " Rain",
  "6904": " honked",
  "6905": "etty",
  "6906": "Whee",
  "6907": " cowb",
  "6908": " separated",
  "6909": "blings",
  "6910": " siblings",
  "6911": " hops",
  "6912": " chop",
  "6913": " sewing",
  "6914": " fires",
  "6915": " Twinkle",
  "6916": " fever",
  "6917": " twinkle",
  "6918": " ty",
  "6919": " camping",
  "6920": " Mira",
  "6921": " lower",
  "6922": " changing",
  "6923": "yes",
  "6924": "retch",
  "6925": " behavi",
  "6926": " Bloom",
  "6927": "mas",
  "6928": " liqu",
  "6929": " celebration",
  "6930": "but",
  "6931": " squealed",
  "6932": " dollhouse",
  "6933": "Sunny",
  "6934": " backward",
  "6935": " age",
  "6936": " snatched",
  "6937": " cash",
  "6938": "ho",
  "6939": " twice",
  "6940": "lee",
  "6941": " sway",
  "6942": "itched",
  "6943": " celebrating",
  "6944": " Peanut",
  "6945": " shrinking",
  "6946": " ache",
  "6947": "weed",
  "6948": " kings",
  "6949": "rious",
  "6950": " shops",
  "6951": " kittens",
  "6952": "cope",
  "6953": "Rose",
  "6954": " Jessica",
  "6955": " Jacob",
  "6956": "rig",
  "6957": " Gina",
  "6958": "aura",
  "6959": " hus",
  "6960": " touches",
  "6961": "airy",
  "6962": " pancakes",
  "6963": "nies",
  "6964": " avoid",
  "6965": " spat",
  "6966": " Frosty",
  "6967": "hog",
  "6968": " Nina",
  "6969": " paths",
  "6970": "ives",
  "6971": "cky",
  "6972": " Hold",
  "6973": " rotten",
  "6974": " calmed",
  "6975": "Sandy",
  "6976": " seaweed",
  "6977": " dropping",
  "6978": " Mel",
  "6979": "iles",
  "6980": "Pipp",
  "6981": " twisting",
  "6982": " stroked",
  "6983": " Jon",
  "6984": " untied",
  "6985": "llen",
  "6986": " playhouse",
  "6987": "Millie",
  "6988": " students",
  "6989": " puppies",
  "6990": " Sof",
  "6991": "hi",
  "6992": " screws",
  "6993": " astron",
  "6994": " Re",
  "6995": " somebody",
  "6996": "igning",
  "6997": " liquid",
  "6998": "aren",
  "6999": "ammy",
  "7000": " wakes",
  "7001": " squish",
  "7002": " Woof",
  "7003": " bracelets",
  "7004": " astronaut",
  "7005": "immer",
  "7006": " thrown",
  "7007": " loops",
  "7008": " Other",
  "7009": "Luckily",
  "7010": " wrapping",
  "7011": " plain",
  "7012": " tramp",
  "7013": " planning",
  "7014": " skunk",
  "7015": " aimed",
  "7016": " pennies",
  "7017": " shoo",
  "7018": " lifts",
  "7019": " dancers",
  "7020": " sparks",
  "7021": " firefly",
  "7022": "pen",
  "7023": " poster",
  "7024": "yan",
  "7025": "endy",
  "7026": " cust",
  "7027": " Christmas",
  "7028": "Dan",
  "7029": " rewarded",
  "7030": " objects",
  "7031": " directions",
  "7032": "using",
  "7033": "ingo",
  "7034": " reflection",
  "7035": " husband",
  "7036": "—",
  "7037": "Take",
  "7038": "river",
  "7039": " clues",
  "7040": "uppy",
  "7041": " leads",
  "7042": " increased",
  "7043": " blocked",
  "7044": " rising",
  "7045": " dod",
  "7046": " cousin",
  "7047": " Yesterday",
  "7048": " Without",
  "7049": " forgetting",
  "7050": "rigued",
  "7051": " custom",
  "7052": "Kate",
  "7053": " trampoline",
  "7054": " beginning",
  "7055": " storekeeper",
  "7056": " pouted",
  "7057": " zebras",
  "7058": " hedgehog",
  "7059": " aff",
  "7060": " ‘",
  "7061": " borrowed",
  "7062": " Rollie",
  "7063": " snowfl",
  "7064": " countryside",
  "7065": "Jump",
  "7066": " mesmer",
  "7067": " Jay",
  "7068": " vehicles",
  "7069": " instrum",
  "7070": " Mic",
  "7071": " Kayla",
  "7072": " Up",
  "7073": " frowning",
  "7074": "ivity",
  "7075": "Pat",
  "7076": "Under",
  "7077": " marker",
  "7078": "yond",
  "7079": " presses",
  "7080": " beyond",
  "7081": " Queen",
  "7082": " damage",
  "7083": " Only",
  "7084": "iece",
  "7085": "ivery",
  "7086": " fart",
  "7087": " Tara",
  "7088": " Biggie",
  "7089": "jo",
  "7090": " health",
  "7091": " whispers",
  "7092": " swimsuit",
  "7093": " slips",
  "7094": " nibb",
  "7095": " Julia",
  "7096": "armer",
  "7097": " warmer",
  "7098": " flapping",
  "7099": " tiptoed",
  "7100": " regretted",
  "7101": "itted",
  "7102": "Zip",
  "7103": " laying",
  "7104": " Robo",
  "7105": "ades",
  "7106": " yelp",
  "7107": " Fire",
  "7108": " rains",
  "7109": " glued",
  "7110": " everybody",
  "7111": " creations",
  "7112": " hearing",
  "7113": " swir",
  "7114": " colder",
  "7115": "iversity",
  "7116": "ael",
  "7117": " shaped",
  "7118": " Elephant",
  "7119": " streets",
  "7120": " fins",
  "7121": " rusty",
  "7122": " cushions",
  "7123": "Out",
  "7124": " san",
  "7125": " farthest",
  "7126": " creativity",
  "7127": " Mikey",
  "7128": "ans",
  "7129": " sale",
  "7130": "Always",
  "7131": "Co",
  "7132": " strongest",
  "7133": "ibbit",
  "7134": " fits",
  "7135": " Sparky",
  "7136": " bells",
  "7137": " dollars",
  "7138": " Larry",
  "7139": " earn",
  "7140": "iam",
  "7141": "angle",
  "7142": " lending",
  "7143": " Moon",
  "7144": " Chirp",
  "7145": "eese",
  "7146": " cashier",
  "7147": "Milly",
  "7148": " including",
  "7149": " sniffs",
  "7150": " sank",
  "7151": " raincoat",
  "7152": " Rich",
  "7153": " trembled",
  "7154": " stopping",
  "7155": " source",
  "7156": "iti",
  "7157": "imon",
  "7158": "ae",
  "7159": " Missy",
  "7160": " wobbly",
  "7161": " indeed",
  "7162": "ters",
  "7163": " guests",
  "7164": " single",
  "7165": " recommended",
  "7166": " wee",
  "7167": " spells",
  "7168": " accomplishment",
  "7169": " belts",
  "7170": " surprising",
  "7171": " ends",
  "7172": " hopeful",
  "7173": "eet",
  "7174": " seasons",
  "7175": " Take",
  "7176": " Snowman",
  "7177": " Els",
  "7178": "Bear",
  "7179": " plans",
  "7180": "ichael",
  "7181": " supported",
  "7182": "stick",
  "7183": "illed",
  "7184": " suffered",
  "7185": " artist",
  "7186": " performance",
  "7187": "Nina",
  "7188": " slowed",
  "7189": " gross",
  "7190": " flavors",
  "7191": "iding",
  "7192": "ertain",
  "7193": " spins",
  "7194": "cho",
  "7195": "Quack",
  "7196": " labels",
  "7197": "uing",
  "7198": " raindrops",
  "7199": " delivery",
  "7200": "arac",
  "7201": " raccoon",
  "7202": " forgiving",
  "7203": "obody",
  "7204": " Woo",
  "7205": " pours",
  "7206": "the",
  "7207": "ility",
  "7208": " vanilla",
  "7209": " turtles",
  "7210": " stands",
  "7211": "Bill",
  "7212": "uess",
  "7213": " recipe",
  "7214": " beam",
  "7215": " tying",
  "7216": " Sw",
  "7217": " geese",
  "7218": " willing",
  "7219": " robber",
  "7220": " drawn",
  "7221": "Vroom",
  "7222": " wept",
  "7223": " Bones",
  "7224": " charac",
  "7225": " pops",
  "7226": " corners",
  "7227": " Sophia",
  "7228": "elia",
  "7229": " queens",
  "7230": " sailboat",
  "7231": " grip",
  "7232": " die",
  "7233": " drivers",
  "7234": "itude",
  "7235": " moo",
  "7236": " hallway",
  "7237": " imagining",
  "7238": " seconds",
  "7239": " Fuzzy",
  "7240": "Mine",
  "7241": " preparing",
  "7242": " widened",
  "7243": " adult",
  "7244": " Spirit",
  "7245": " grocer",
  "7246": " coop",
  "7247": " talented",
  "7248": " Pam",
  "7249": " Beaky",
  "7250": " Izzy",
  "7251": "ummies",
  "7252": " sailors",
  "7253": "lling",
  "7254": " softer",
  "7255": " aside",
  "7256": " watering",
  "7257": " sending",
  "7258": " knots",
  "7259": " unsure",
  "7260": " tipped",
  "7261": "Lulu",
  "7262": " treehouse",
  "7263": " horiz",
  "7264": " Lizzie",
  "7265": " notes",
  "7266": " echo",
  "7267": "igers",
  "7268": " achieved",
  "7269": " horizon",
  "7270": " squeak",
  "7271": " delivering",
  "7272": " pleasure",
  "7273": " hotter",
  "7274": " Stella",
  "7275": "Clara",
  "7276": " pupils",
  "7277": " burrow",
  "7278": " angels",
  "7279": " curiously",
  "7280": "Ellie",
  "7281": " yum",
  "7282": " blinking",
  "7283": " June",
  "7284": " tweet",
  "7285": " symbols",
  "7286": " det",
  "7287": " Stretch",
  "7288": "wk",
  "7289": " passen",
  "7290": " Rudy",
  "7291": " Cindy",
  "7292": " tummies",
  "7293": " tiss",
  "7294": " pigeons",
  "7295": " figures",
  "7296": "umbling",
  "7297": "oey",
  "7298": " bandages",
  "7299": " Robert",
  "7300": " coup",
  "7301": " Doctor",
  "7302": " robots",
  "7303": "alph",
  "7304": " tossed",
  "7305": " hour",
  "7306": " backwards",
  "7307": " roars",
  "7308": "Baby",
  "7309": " merma",
  "7310": "uzz",
  "7311": " rather",
  "7312": "atur",
  "7313": "Maria",
  "7314": "cited",
  "7315": " Play",
  "7316": " Crab",
  "7317": "Moo",
  "7318": "ighting",
  "7319": "Dolly",
  "7320": " groceries",
  "7321": " zipping",
  "7322": "Put",
  "7323": "Very",
  "7324": " unw",
  "7325": "prin",
  "7326": " among",
  "7327": " blown",
  "7328": " icing",
  "7329": "!”.",
  "7330": " rumble",
  "7331": " afterwards",
  "7332": "ipper",
  "7333": " screwd",
  "7334": "ushing",
  "7335": " sped",
  "7336": " prove",
  "7337": " glee",
  "7338": " Titi",
  "7339": " Tia",
  "7340": " dip",
  "7341": " overcome",
  "7342": "Ruby",
  "7343": "Quick",
  "7344": " surfboard",
  "7345": " shovels",
  "7346": " slices",
  "7347": " Toot",
  "7348": " merry",
  "7349": " wobble",
  "7350": " mate",
  "7351": " Turt",
  "7352": " Abbie",
  "7353": " heading",
  "7354": " disturbing",
  "7355": " swall",
  "7356": " reversed",
  "7357": " firefighters",
  "7358": "Jul",
  "7359": " swallowed",
  "7360": " chip",
  "7361": " scored",
  "7362": " flipped",
  "7363": "eds",
  "7364": "awn",
  "7365": " Jump",
  "7366": " squeezing",
  "7367": "usty",
  "7368": "Frank",
  "7369": "aty",
  "7370": "Su",
  "7371": " waking",
  "7372": " intrigued",
  "7373": "Sad",
  "7374": "Like",
  "7375": " maker",
  "7376": " Barky",
  "7377": "Betty",
  "7378": " puff",
  "7379": " hawk",
  "7380": " encouraging",
  "7381": " aud",
  "7382": " Ex",
  "7383": "osen",
  "7384": "onies",
  "7385": " chosen",
  "7386": "hew",
  "7387": " Farmer",
  "7388": " Ang",
  "7389": " couple",
  "7390": " designs",
  "7391": " slipping",
  "7392": " screwdriver",
  "7393": " squishy",
  "7394": " Emmy",
  "7395": " gardener",
  "7396": " center",
  "7397": " rivers",
  "7398": " respond",
  "7399": " markers",
  "7400": "iley",
  "7401": " tigers",
  "7402": " jars",
  "7403": "pecting",
  "7404": " frowns",
  "7405": "bird",
  "7406": " fluttered",
  "7407": " Sadly",
  "7408": " Kit",
  "7409": "Ribbit",
  "7410": " firefighter",
  "7411": " Sl",
  "7412": " Ryan",
  "7413": " suits",
  "7414": " secure",
  "7415": " sprinkled",
  "7416": " creamy",
  "7417": "ashes",
  "7418": " sharks",
  "7419": " ignoring",
  "7420": " bru",
  "7421": " giggles",
  "7422": " tissue",
  "7423": " tighter",
  "7424": " firmly",
  "7425": "ounce",
  "7426": " Laura",
  "7427": "fly",
  "7428": " shown",
  "7429": " familiar",
  "7430": " thorns",
  "7431": "Spike",
  "7432": " Wo",
  "7433": " drawers",
  "7434": "child",
  "7435": " Zee",
  "7436": " express",
  "7437": "Car",
  "7438": "ments",
  "7439": " def",
  "7440": " daring",
  "7441": " crossing",
  "7442": " audience",
  "7443": " performing",
  "7444": " coloured",
  "7445": " cloudy",
  "7446": " cor",
  "7447": " ais",
  "7448": " Nick",
  "7449": "rat",
  "7450": " pedaled",
  "7451": "Get",
  "7452": " mixture",
  "7453": " til",
  "7454": " gracefully",
  "7455": "ggy",
  "7456": " haircuts",
  "7457": " yielded",
  "7458": " ponies",
  "7459": " disob",
  "7460": " crowns",
  "7461": " bits",
  "7462": " todd",
  "7463": " Sleep",
  "7464": " nervously",
  "7465": " hangers",
  "7466": "bbled",
  "7467": " Patch",
  "7468": "Zoomy",
  "7469": " pays",
  "7470": " 2",
  "7471": " peck",
  "7472": " stroke",
  "7473": " ev",
  "7474": "fall",
  "7475": "Bang",
  "7476": "een",
  "7477": " respected",
  "7478": " napped",
  "7479": " Ron",
  "7480": "aven",
  "7481": " minded",
  "7482": "ddie",
  "7483": "Bessie",
  "7484": "ably",
  "7485": "Boys",
  "7486": " tested",
  "7487": "ading",
  "7488": "parent",
  "7489": " Chris",
  "7490": "Kim",
  "7491": " University",
  "7492": " Near",
  "7493": " beeh",
  "7494": " Turtle",
  "7495": " surfing",
  "7496": " neighbours",
  "7497": "arrow",
  "7498": "vered",
  "7499": " shady",
  "7500": "iona",
  "7501": "arlings",
  "7502": " magician",
  "7503": " enthusiasm",
  "7504": " darlings",
  "7505": " wisely",
  "7506": " stitches",
  "7507": " sails",
  "7508": "kend",
  "7509": "Dear",
  "7510": " weekend",
  "7511": " thoughts",
  "7512": "Freddy",
  "7513": " Tweetie",
  "7514": " reminds",
  "7515": " temper",
  "7516": "oring",
  "7517": "tha",
  "7518": "antha",
  "7519": " surroundings",
  "7520": " spits",
  "7521": " fleas",
  "7522": " teams",
  "7523": " lessons",
  "7524": " fills",
  "7525": " flip",
  "7526": " Along",
  "7527": " paintbrush",
  "7528": " melons",
  "7529": " mermaid",
  "7530": "oni",
  "7531": "Katie",
  "7532": "rac",
  "7533": " grandchild",
  "7534": " hoops",
  "7535": " explo",
  "7536": " elbow",
  "7537": " sports",
  "7538": "Guess",
  "7539": " lies",
  "7540": " Fighting",
  "7541": " panicked",
  "7542": " cleaner",
  "7543": " amount",
  "7544": "cused",
  "7545": " longest",
  "7546": " scooters",
  "7547": " lent",
  "7548": "ita",
  "7549": "immering",
  "7550": " sill",
  "7551": " beloved",
  "7552": "Pippin",
  "7553": " beehive",
  "7554": "Alright",
  "7555": "ongrat",
  "7556": "oga",
  "7557": "lle",
  "7558": "ongratul",
  "7559": " oysters",
  "7560": " grandparent",
  "7561": " forgiven",
  "7562": " magazines",
  "7563": " arr",
  "7564": " Wise",
  "7565": " elf",
  "7566": " repeating",
  "7567": " discussed",
  "7568": " sweetest",
  "7569": " Thanks",
  "7570": "Keep",
  "7571": " wadd",
  "7572": " Maya",
  "7573": " reass",
  "7574": " lace",
  "7575": " Granny",
  "7576": " nightmares",
  "7577": " tubes",
  "7578": " Willy",
  "7579": "Am",
  "7580": " understands",
  "7581": " spoonful",
  "7582": " nood",
  "7583": " bathing",
  "7584": " Zoey",
  "7585": "asty",
  "7586": " sweep",
  "7587": " manners",
  "7588": "onna",
  "7589": "crow",
  "7590": "Uncle",
  "7591": " wrink",
  "7592": " sprang",
  "7593": " nur",
  "7594": " bully",
  "7595": " Holly",
  "7596": " guide",
  "7597": " Yet",
  "7598": " crew",
  "7599": "romise",
  "7600": "ancy",
  "7601": "Jazz",
  "7602": " breathed",
  "7603": "while",
  "7604": "steps",
  "7605": "ilda",
  "7606": "ently",
  "7607": " Bally",
  "7608": " bulbs",
  "7609": " neare",
  "7610": " grassy",
  "7611": " wiggly",
  "7612": " testing",
  "7613": " spies",
  "7614": " coug",
  "7615": " solving",
  "7616": " sheets",
  "7617": " Roo",
  "7618": " footsteps",
  "7619": "ntil",
  "7620": "Afterwards",
  "7621": " speeding",
  "7622": " focused",
  "7623": "ounced",
  "7624": "cept",
  "7625": "?!\"",
  "7626": " mesmerized",
  "7627": " camel",
  "7628": " braver",
  "7629": " hesitant",
  "7630": " Sparkle",
  "7631": " licking",
  "7632": " rushing",
  "7633": " Well",
  "7634": "ne",
  "7635": " joining",
  "7636": " Puppy",
  "7637": " polar",
  "7638": " greeted",
  "7639": " Martha",
  "7640": "espite",
  "7641": "anna",
  "7642": "--",
  "7643": " Bubb",
  "7644": "Which",
  "7645": "Kiki",
  "7646": " worn",
  "7647": " materials",
  "7648": " changes",
  "7649": " aren",
  "7650": " Nobody",
  "7651": "undred",
  "7652": " stored",
  "7653": " bicycles",
  "7654": " mast",
  "7655": " anger",
  "7656": "Leave",
  "7657": " peacefully",
  "7658": " ships",
  "7659": " spice",
  "7660": " terrified",
  "7661": " nuzz",
  "7662": " gonna",
  "7663": " Show",
  "7664": " politely",
  "7665": "Snow",
  "7666": " spills",
  "7667": " scarecrow",
  "7668": " knives",
  "7669": " evil",
  "7670": " Mixy",
  "7671": "ppies",
  "7672": " burying",
  "7673": "ca",
  "7674": " healing",
  "7675": " donkey",
  "7676": " aeroplanes",
  "7677": "freeze",
  "7678": "Even",
  "7679": " seals",
  "7680": " scattering",
  "7681": " miles",
  "7682": " Chewy",
  "7683": "amboo",
  "7684": " dump",
  "7685": " worrying",
  "7686": "Bee",
  "7687": "zoom",
  "7688": "beep",
  "7689": "David",
  "7690": " Lenny",
  "7691": " puzzled",
  "7692": " stacked",
  "7693": " Kip",
  "7694": "Penny",
  "7695": " Nice",
  "7696": " loses",
  "7697": "dding",
  "7698": " travelled",
  "7699": " baskets",
  "7700": " Win",
  "7701": " Okay",
  "7702": " gazing",
  "7703": " blast",
  "7704": "ipes",
  "7705": " Tess",
  "7706": "Hurry",
  "7707": " temperature",
  "7708": " und",
  "7709": " tasting",
  "7710": " dripping",
  "7711": " clue",
  "7712": " believing",
  "7713": " pinching",
  "7714": "erm",
  "7715": " soaking",
  "7716": " rats",
  "7717": " 10",
  "7718": "isc",
  "7719": " sandy",
  "7720": "rect",
  "7721": " Isn",
  "7722": " Simon",
  "7723": "rey",
  "7724": "anwhile",
  "7725": "gling",
  "7726": " Abi",
  "7727": "Binky",
  "7728": " punishment",
  "7729": " banged",
  "7730": " humans",
  "7731": " crashing",
  "7732": " force",
  "7733": " Ana",
  "7734": " hundred",
  "7735": " gest",
  "7736": " Lia",
  "7737": " swimmer",
  "7738": " Chess",
  "7739": " snowflakes",
  "7740": " relaxing",
  "7741": " resisted",
  "7742": " beeped",
  "7743": " Fairy",
  "7744": " quarreled",
  "7745": "form",
  "7746": "elie",
  "7747": " ramp",
  "7748": " Wendy",
  "7749": " joins",
  "7750": "abby",
  "7751": " backpacks",
  "7752": " Ph",
  "7753": "years",
  "7754": " dressing",
  "7755": " delayed",
  "7756": " toddler",
  "7757": " Luckily",
  "7758": " flight",
  "7759": " covering",
  "7760": " Te",
  "7761": "orter",
  "7762": "Two",
  "7763": "Open",
  "7764": "By",
  "7765": " encouragement",
  "7766": " benches",
  "7767": " toward",
  "7768": " scraped",
  "7769": " purpose",
  "7770": " focus",
  "7771": " Judy",
  "7772": "Bow",
  "7773": " correct",
  "7774": "'.\"",
  "7775": " lipstick",
  "7776": " bamboo",
  "7777": "Spe",
  "7778": " twinkled",
  "7779": " potion",
  "7780": " permitted",
  "7781": " months",
  "7782": " Cow",
  "7783": " languages",
  "7784": " orders",
  "7785": " freedom",
  "7786": "Tony",
  "7787": " risks",
  "7788": " poppies",
  "7789": " master",
  "7790": "shm",
  "7791": " noodles",
  "7792": " faded",
  "7793": " wounds",
  "7794": "shmallow",
  "7795": "rier",
  "7796": "Kids",
  "7797": "isions",
  "7798": " Jojo",
  "7799": " creams",
  "7800": " birdhouse",
  "7801": " cells",
  "7802": " annoyed",
  "7803": " Herb",
  "7804": "opes",
  "7805": " sniffing",
  "7806": " cheers",
  "7807": " adults",
  "7808": "Birdy",
  "7809": " unwra",
  "7810": "ecca",
  "7811": "Buzzy",
  "7812": " puck",
  "7813": " opinions",
  "7814": " floats",
  "7815": "andas",
  "7816": "Instead",
  "7817": " flown",
  "7818": " sneezes",
  "7819": " scen",
  "7820": " handsome",
  "7821": " Hug",
  "7822": " nodding",
  "7823": " Mint",
  "7824": " smelling",
  "7825": " burnt",
  "7826": " 5",
  "7827": " drifted",
  "7828": "ider",
  "7829": "bage",
  "7830": " within",
  "7831": " scient",
  "7832": " height",
  "7833": " damaged",
  "7834": " bothering",
  "7835": " tearing",
  "7836": " slither",
  "7837": " pleaded",
  "7838": " instruments",
  "7839": " ease",
  "7840": " Ali",
  "7841": "Back",
  "7842": " scientist",
  "7843": " Marie",
  "7844": "Mira",
  "7845": "Goodnight",
  "7846": " pound",
  "7847": " seller",
  "7848": " handing",
  "7849": "da",
  "7850": " germ",
  "7851": " Say",
  "7852": " wasting",
  "7853": " files",
  "7854": " results",
  "7855": " dreamt",
  "7856": " Mabel",
  "7857": "bell",
  "7858": " explains",
  "7859": " destroying",
  "7860": " brushing",
  "7861": "ousy",
  "7862": " hiss",
  "7863": " characters",
  "7864": " Razor",
  "7865": " Cr",
  "7866": "Carl",
  "7867": " certain",
  "7868": " Ste",
  "7869": "Pandy",
  "7870": "Behind",
  "7871": " sweaty",
  "7872": "unched",
  "7873": " business",
  "7874": " Robbie",
  "7875": " talents",
  "7876": " onward",
  "7877": "Try",
  "7878": " engines",
  "7879": " bravest",
  "7880": "ition",
  "7881": " sternly",
  "7882": " Pen",
  "7883": " Janie",
  "7884": "prints",
  "7885": " postman",
  "7886": " mosquitoes",
  "7887": " minds",
  "7888": "cake",
  "7889": " tuck",
  "7890": " scares",
  "7891": "urious",
  "7892": " stomp",
  "7893": " apologised",
  "7894": "uel",
  "7895": " manag",
  "7896": " snuck",
  "7897": " bitten",
  "7898": "attered",
  "7899": " tilted",
  "7900": " switched",
  "7901": " reminding",
  "7902": " decisions",
  "7903": " singers",
  "7904": " desper",
  "7905": " behavior",
  "7906": " Poor",
  "7907": "ashing",
  "7908": " Judge",
  "7909": "bbers",
  "7910": "inny",
  "7911": " squeaked",
  "7912": " peeled",
  "7913": " Everybody",
  "7914": " yumm",
  "7915": " purrs",
  "7916": " Bra",
  "7917": " treated",
  "7918": " smashed",
  "7919": " rustling",
  "7920": " displayed",
  "7921": " Until",
  "7922": " neatly",
  "7923": " matey",
  "7924": " planting",
  "7925": " Bess",
  "7926": "inier",
  "7927": " marshmallow",
  "7928": " insp",
  "7929": " yelped",
  "7930": " sy",
  "7931": " grandparents",
  "7932": " cracks",
  "7933": " bellies",
  "7934": "aver",
  "7935": " shines",
  "7936": " scamp",
  "7937": " Navy",
  "7938": " hoo",
  "7939": " failed",
  "7940": " coloring",
  "7941": " Yoga",
  "7942": " zooms",
  "7943": " Make",
  "7944": "rup",
  "7945": " nasty",
  "7946": " breathing",
  "7947": " combed",
  "7948": " pandas",
  "7949": " despite",
  "7950": "line",
  "7951": " address",
  "7952": "ighing",
  "7953": " waterfall",
  "7954": "uffin",
  "7955": "omp",
  "7956": "cc",
  "7957": " Loop",
  "7958": " Angel",
  "7959": "Tilly",
  "7960": " wider",
  "7961": " robbers",
  "7962": " antic",
  "7963": "Play",
  "7964": "Abigail",
  "7965": " sweaters",
  "7966": " echoed",
  "7967": " doorway",
  "7968": " Todd",
  "7969": "evin",
  "7970": " edges",
  "7971": " inj",
  "7972": " Shadow",
  "7973": "Aunt",
  "7974": " gap",
  "7975": " disobey",
  "7976": " Blinky",
  "7977": "wise",
  "7978": "Liz",
  "7979": " Michael",
  "7980": "sss",
  "7981": " tar",
  "7982": " Flick",
  "7983": "oscope",
  "7984": "orking",
  "7985": "Wake",
  "7986": " taped",
  "7987": " magnif",
  "7988": "ulp",
  "7989": "father",
  "7990": " scolds",
  "7991": " flaps",
  "7992": " action",
  "7993": " crawls",
  "7994": " Mindy",
  "7995": "Ros",
  "7996": " swap",
  "7997": " gobbled",
  "7998": " backs",
  "7999": " Gary",
  "8000": " warri",
  "8001": " Fishy",
  "8002": " Eddie",
  "8003": "Slow",
  "8004": " steth",
  "8005": " sever",
  "8006": " shinier",
  "8007": " probably",
  "8008": " newspapers",
  "8009": " several",
  "8010": " occ",
  "8011": "Rock",
  "8012": "Lena",
  "8013": " encount",
  "8014": " Meg",
  "8015": " serving",
  "8016": " quieter",
  "8017": " plucked",
  "8018": " connected",
  "8019": "tock",
  "8020": " Share",
  "8021": " ouch",
  "8022": "igger",
  "8023": "Ted",
  "8024": "Adam",
  "8025": " gesture",
  "8026": "Too",
  "8027": "Fl",
  "8028": " student",
  "8029": " plot",
  "8030": " doorbell",
  "8031": " squaw",
  "8032": " cares",
  "8033": "fire",
  "8034": " rescuing",
  "8035": " grandson",
  "8036": " Se",
  "8037": " spy",
  "8038": " simply",
  "8039": " rows",
  "8040": " goo",
  "8041": "iel",
  "8042": " whistles",
  "8043": "mies",
  "8044": "vant",
  "8045": "Shrink",
  "8046": "Magic",
  "8047": " snaps",
  "8048": " shorter",
  "8049": " astronauts",
  "8050": "sss",
  "8051": " unpacking",
  "8052": " cottage",
  "8053": " Time",
  "8054": " swo",
  "8055": " accidents",
  "8056": "ibi",
  "8057": " swollen",
  "8058": " mood",
  "8059": " Nut",
  "8060": "Steve",
  "8061": "abelle",
  "8062": " Zippy",
  "8063": " Mousy",
  "8064": "anie",
  "8065": "Zara",
  "8066": " bothered",
  "8067": "Hannah",
  "8068": " stethoscope",
  "8069": "found",
  "8070": " trusting",
  "8071": " causing",
  "8072": "Mat",
  "8073": "Mad",
  "8074": " leapt",
  "8075": " dresser",
  "8076": "aint",
  "8077": " sou",
  "8078": " proper",
  "8079": " pills",
  "8080": "retty",
  "8081": " throughout",
  "8082": "Olive",
  "8083": " runner",
  "8084": " prayers",
  "8085": " Dina",
  "8086": " joyful",
  "8087": "Thomas",
  "8088": " Karen",
  "8089": "mates",
  "8090": " locks",
  "8091": " Prince",
  "8092": "Jamie",
  "8093": " goats",
  "8094": "what",
  "8095": " target",
  "8096": "rest",
  "8097": " Wait",
  "8098": " dears",
  "8099": " Bang",
  "8100": "artled",
  "8101": "Red",
  "8102": " waddled",
  "8103": " munch",
  "8104": " flips",
  "8105": " Cro",
  "8106": "onnie",
  "8107": " lowered",
  "8108": " stepping",
  "8109": " cons",
  "8110": " Jackie",
  "8111": " teachers",
  "8112": " cowboy",
  "8113": " Toys",
  "8114": " inches",
  "8115": " envelopes",
  "8116": "ears",
  "8117": " char",
  "8118": " Vroom",
  "8119": " explorer",
  "8120": " anticip",
  "8121": " playd",
  "8122": " Ready",
  "8123": " Ruff",
  "8124": " Ralph",
  "8125": "unity",
  "8126": "Nice",
  "8127": "Finn",
  "8128": " Bad",
  "8129": "ening",
  "8130": " knocking",
  "8131": " floors",
  "8132": " efforts",
  "8133": " Pl",
  "8134": " uniforms",
  "8135": "lied",
  "8136": " plug",
  "8137": " Tri",
  "8138": " aware",
  "8139": " footprints",
  "8140": "Someone",
  "8141": " nearly",
  "8142": " Fiona",
  "8143": "llas",
  "8144": " disc",
  "8145": " Ria",
  "8146": "ivi",
  "8147": " whimp",
  "8148": " trot",
  "8149": " sens",
  "8150": " glitt",
  "8151": " appreciation",
  "8152": "oosh",
  "8153": " necks",
  "8154": " collap",
  "8155": " checks",
  "8156": " lapt",
  "8157": " except",
  "8158": "ici",
  "8159": " charge",
  "8160": " Jacky",
  "8161": " fluttering",
  "8162": " umbrellas",
  "8163": "acy",
  "8164": " sandcastles",
  "8165": " Davey",
  "8166": " statues",
  "8167": " stamped",
  "8168": " Honey",
  "8169": "omb",
  "8170": "iscuit",
  "8171": "ails",
  "8172": "Hoppy",
  "8173": " shrank",
  "8174": " Amelia",
  "8175": "rily",
  "8176": " prick",
  "8177": " finishing",
  "8178": " adds",
  "8179": "rons",
  "8180": " stroll",
  "8181": " hunters",
  "8182": " dodged",
  "8183": " chocolates",
  "8184": " passengers",
  "8185": " germs",
  "8186": "oger",
  "8187": "nie",
  "8188": " wrig",
  "8189": " aprons",
  "8190": " aisle",
  "8191": " sets",
  "8192": ".'\"",
  "8193": " Gerry",
  "8194": " weeds",
  "8195": " novels",
  "8196": " demanding",
  "8197": " Taking",
  "8198": "gles",
  "8199": " scratching",
  "8200": " meows",
  "8201": "issa",
  "8202": "Dr",
  "8203": " nurses",
  "8204": "Lucky",
  "8205": " minding",
  "8206": " discussing",
  "8207": "urrender",
  "8208": " killed",
  "8209": " driveway",
  "8210": " Cari",
  "8211": " becomes",
  "8212": " toolbox",
  "8213": " laptop",
  "8214": " haird",
  "8215": " Eliz",
  "8216": " posit",
  "8217": " attack",
  "8218": " Sadie",
  "8219": " Gl",
  "8220": " Despite",
  "8221": "Speedy",
  "8222": "sol",
  "8223": " scampered",
  "8224": " bounces",
  "8225": " supplied",
  "8226": " sprays",
  "8227": " deed",
  "8228": " tempt",
  "8229": " suggestion",
  "8230": " friendships",
  "8231": " burns",
  "8232": "Coco",
  "8233": " slapping",
  "8234": " closing",
  "8235": "Arrr",
  "8236": " invites",
  "8237": " belongings",
  "8238": " anticipation",
  "8239": " springing",
  "8240": " form",
  "8241": " erase",
  "8242": " cotton",
  "8243": " Stan",
  "8244": " twists",
  "8245": " rays",
  "8246": " snuggle",
  "8247": " forgives",
  "8248": " models",
  "8249": " shall",
  "8250": " massages",
  "8251": " humming",
  "8252": " responded",
  "8253": " newfound",
  "8254": " ghosts",
  "8255": " expecting",
  "8256": " Shelly",
  "8257": " cheated",
  "8258": "Does",
  "8259": " Wooly",
  "8260": "Gigi",
  "8261": "otte",
  "8262": " traveling",
  "8263": " Ne",
  "8264": " cond",
  "8265": " battle",
  "8266": " although",
  "8267": " arran",
  "8268": "alloween",
  "8269": " mommies",
  "8270": " invitations",
  "8271": " carries",
  "8272": " aim",
  "8273": " refreshing",
  "8274": " presented",
  "8275": "hel",
  "8276": " twenty",
  "8277": " rowed",
  "8278": " Bumpy",
  "8279": "ots",
  "8280": " squir",
  "8281": "rie",
  "8282": "arlotte",
  "8283": " foxes",
  "8284": " cooper",
  "8285": " final",
  "8286": " duckling",
  "8287": " cafe",
  "8288": " Bibi",
  "8289": "Pip",
  "8290": " marshmallows",
  "8291": " clicked",
  "8292": " Zipper",
  "8293": "oor",
  "8294": " jets",
  "8295": " designing",
  "8296": " beaver",
  "8297": "five",
  "8298": " Muffin",
  "8299": " Halloween",
  "8300": " mugs",
  "8301": " Whoever",
  "8302": " drown",
  "8303": " Although",
  "8304": " tricycle",
  "8305": " picnics",
  "8306": " oppos",
  "8307": " convin",
  "8308": " Ruth",
  "8309": " Excited",
  "8310": "iens",
  "8311": " Cle",
  "8312": " scoops",
  "8313": " congratul",
  "8314": " Pop",
  "8315": " Maddie",
  "8316": "po",
  "8317": "Sadly",
  "8318": " —",
  "8319": " travels",
  "8320": " aliens",
  "8321": " tests",
  "8322": " questioned",
  "8323": " Speed",
  "8324": "inted",
  "8325": " strips",
  "8326": " craft",
  "8327": " Im",
  "8328": "Near",
  "8329": "atty",
  "8330": "Mouse",
  "8331": "covered",
  "8332": " defe",
  "8333": " Flutter",
  "8334": " Bubba",
  "8335": "iri",
  "8336": "Br",
  "8337": " fights",
  "8338": "roken",
  "8339": "Ball",
  "8340": " opposite",
  "8341": " Biggy",
  "8342": "Hmm",
  "8343": "Find",
  "8344": "Elly",
  "8345": "Chloe",
  "8346": " rout",
  "8347": " grandfather",
  "8348": " encountered",
  "8349": " Never",
  "8350": " decl",
  "8351": "inch",
  "8352": " afford",
  "8353": " raising",
  "8354": "iment",
  "8355": " upside",
  "8356": " Vivi",
  "8357": "Meanwhile",
  "8358": "Jess",
  "8359": " flashed",
  "8360": " calmly",
  "8361": " Rita",
  "8362": " yawning",
  "8363": " sincere",
  "8364": " realizes",
  "8365": "aturday",
  "8366": "Trust",
  "8367": "Choo",
  "8368": " crystals",
  "8369": " buddy",
  "8370": " Samantha",
  "8371": " cupcakes",
  "8372": " buckled",
  "8373": "byes",
  "8374": "Both",
  "8375": " winners",
  "8376": " defin",
  "8377": "verse",
  "8378": "ris",
  "8379": " conc",
  "8380": "',",
  "8381": " weapons",
  "8382": " caw",
  "8383": "shadow",
  "8384": "Josh",
  "8385": " packages",
  "8386": " cheat",
  "8387": " Saturday",
  "8388": " sacks",
  "8389": " messes",
  "8390": " goodbyes",
  "8391": " coach",
  "8392": " attem",
  "8393": "quet",
  "8394": " convers",
  "8395": " Truck",
  "8396": " Flo",
  "8397": "val",
  "8398": " drift",
  "8399": " caps",
  "8400": " Mina",
  "8401": " Eva",
  "8402": "emies",
  "8403": " enemies",
  "8404": "asha",
  "8405": " yummiest",
  "8406": " scrub",
  "8407": " swallow",
  "8408": " returning",
  "8409": " admiration",
  "8410": " Softy",
  "8411": " Megan",
  "8412": "Since",
  "8413": " sprout",
  "8414": " Louise",
  "8415": " unable",
  "8416": " Playing",
  "8417": " Another",
  "8418": "ooks",
  "8419": " sadder",
  "8420": " freezing",
  "8421": " brightest",
  "8422": " bless",
  "8423": " Yawn",
  "8424": "rian",
  "8425": " respon",
  "8426": "reverse",
  "8427": " response",
  "8428": " cosy",
  "8429": " Oh",
  "8430": " diamonds",
  "8431": " bride",
  "8432": "stalk",
  "8433": " reapp",
  "8434": " opport",
  "8435": " honking",
  "8436": " garbage",
  "8437": " Man",
  "8438": " whispering",
  "8439": " stretches",
  "8440": " prevented",
  "8441": "erk",
  "8442": "antastic",
  "8443": " whoever",
  "8444": " odd",
  "8445": " awful",
  "8446": " Gray",
  "8447": "alth",
  "8448": " weighs",
  "8449": " journeys",
  "8450": " awoke",
  "8451": "Brrr",
  "8452": " traps",
  "8453": " spices",
  "8454": " dragonfly",
  "8455": "off",
  "8456": " born",
  "8457": " reassured",
  "8458": " clip",
  "8459": "ivia",
  "8460": " stall",
  "8461": " beanstalk",
  "8462": " argum",
  "8463": " examining",
  "8464": " definitely",
  "8465": " beetles",
  "8466": " automobiles",
  "8467": " Maisy",
  "8468": "mine",
  "8469": "Hop",
  "8470": " visitors",
  "8471": " stuffing",
  "8472": " playdate",
  "8473": " washes",
  "8474": "cie",
  "8475": "broken",
  "8476": " wiser",
  "8477": " customer",
  "8478": "uper",
  "8479": "emma",
  "8480": "Rachel",
  "8481": " travelling",
  "8482": " Sofia",
  "8483": " Jolly",
  "8484": " Flop",
  "8485": "ouquet",
  "8486": " hairdress",
  "8487": " bouquet",
  "8488": " Nurse",
  "8489": "orse",
  "8490": "bble",
  "8491": ",'",
  "8492": " tumbled",
  "8493": " decoration",
  "8494": " campfire",
  "8495": " Elle",
  "8496": " honesty",
  "8497": " bud",
  "8498": "vy",
  "8499": "ebecca",
  "8500": "Only",
  "8501": " bomb",
  "8502": " welcoming",
  "8503": " offering",
  "8504": " wealth",
  "8505": " troubles",
  "8506": " occas",
  "8507": " Ot",
  "8508": " Jax",
  "8509": " Hello",
  "8510": " loudest",
  "8511": " inspired",
  "8512": " increasing",
  "8513": " type",
  "8514": " parted",
  "8515": " groan",
  "8516": " Chick",
  "8517": " Nutty",
  "8518": "irac",
  "8519": " whales",
  "8520": " Thunder",
  "8521": " Ricky",
  "8522": " declared",
  "8523": " correctly",
  "8524": "yler",
  "8525": "ooky",
  "8526": "fus",
  "8527": " beaks",
  "8528": " Quacky",
  "8529": "athan",
  "8530": " cleared",
  "8531": " cowboys",
  "8532": " nuzzled",
  "8533": " Dotty",
  "8534": " prizes",
  "8535": "Finny",
  "8536": " warmly",
  "8537": " Missile",
  "8538": " rewards",
  "8539": " obeyed",
  "8540": " customers",
  "8541": "Should",
  "8542": " sirens",
  "8543": " comforting",
  "8544": " Fel",
  "8545": "shaped",
  "8546": " connect",
  "8547": " Flappy",
  "8548": "match",
  "8549": " towns",
  "8550": " Magic",
  "8551": " Bingo",
  "8552": "elieve",
  "8553": " rely",
  "8554": " Vicky",
  "8555": "Honey",
  "8556": " trigger",
  "8557": " owns",
  "8558": " insisting",
  "8559": " fantastic",
  "8560": " bends",
  "8561": " Fe",
  "8562": " spoiling",
  "8563": " hairdresser",
  "8564": " surrendered",
  "8565": " supporting",
  "8566": " shares",
  "8567": " poses",
  "8568": " pipes",
  "8569": " cleans",
  "8570": "rench",
  "8571": "Sun",
  "8572": "Outside",
  "8573": "Julie",
  "8574": " wrinkled",
  "8575": " Cook",
  "8576": " chopped",
  "8577": " recorder",
  "8578": " moons",
  "8579": " beaming",
  "8580": "unes",
  "8581": "ellow",
  "8582": "Beth",
  "8583": " thanking",
  "8584": " snowy",
  "8585": " Wolf",
  "8586": "enn",
  "8587": " scurry",
  "8588": " experien",
  "8589": " enjoyable",
  "8590": " active",
  "8591": " coral",
  "8592": " Piggy",
  "8593": " environ",
  "8594": " dollar",
  "8595": " Kevin",
  "8596": "worm",
  "8597": "elope",
  "8598": " loc",
  "8599": "Je",
  "8600": " streamers",
  "8601": " Bub",
  "8602": "udged",
  "8603": " Patty",
  "8604": " Mother",
  "8605": " Zack",
  "8606": "inger",
  "8607": "Suzy",
  "8608": " examp",
  "8609": " shorts",
  "8610": " shooed",
  "8611": " environment",
  "8612": "Tree",
  "8613": " ill",
  "8614": " scent",
  "8615": " bruises",
  "8616": "uster",
  "8617": " grat",
  "8618": " Luc",
  "8619": "Bo",
  "8620": " hisses",
  "8621": " steering",
  "8622": " self",
  "8623": " plugged",
  "8624": " Elsa",
  "8625": " warrior",
  "8626": "yl",
  "8627": " visits",
  "8628": " exercises",
  "8629": "screen",
  "8630": "irl",
  "8631": "aptain",
  "8632": " dangers",
  "8633": " cuddles",
  "8634": " Rel",
  "8635": " Ar",
  "8636": " unfortunately",
  "8637": " squished",
  "8638": " signing",
  "8639": " Light",
  "8640": "bee",
  "8641": "Ray",
  "8642": " pilots",
  "8643": " disappoint",
  "8644": "munk",
  "8645": " gratitude",
  "8646": " applauding",
  "8647": " providing",
  "8648": " Moppy",
  "8649": "alf",
  "8650": " tickles",
  "8651": " ting",
  "8652": " Rub",
  "8653": "Grow",
  "8654": " storms",
  "8655": " nights",
  "8656": " jud",
  "8657": " convinced",
  "8658": " badger",
  "8659": " Elsie",
  "8660": " youn",
  "8661": " responsib",
  "8662": " choosing",
  "8663": " Kelly",
  "8664": "Joy",
  "8665": " youngest",
  "8666": " nearest",
  "8667": " brains",
  "8668": " activity",
  "8669": "Abby",
  "8670": " exploded",
  "8671": " coughed",
  "8672": " arranged",
  "8673": "Claire",
  "8674": " rewarding",
  "8675": " Tre",
  "8676": " Fly",
  "8677": "pr",
  "8678": "good",
  "8679": "erpiece",
  "8680": " sunscreen",
  "8681": " peep",
  "8682": " bond",
  "8683": " Floppy",
  "8684": "asers",
  "8685": "Mon",
  "8686": " Tweety",
  "8687": " Sweet",
  "8688": " Katy",
  "8689": " Sal",
  "8690": "ilities",
  "8691": " annoying",
  "8692": "eow",
  "8693": " soapy",
  "8694": "sn",
  "8695": "meow",
  "8696": "Splash",
  "8697": " rails",
  "8698": " laces",
  "8699": " threads",
  "8700": " tapping",
  "8701": " offic",
  "8702": " appreciated",
  "8703": " Pine",
  "8704": " Phil",
  "8705": "boards",
  "8706": " weighing",
  "8707": " heartbroken",
  "8708": " emerged",
  "8709": " congratulated",
  "8710": " Pick",
  "8711": "Danger",
  "8712": " Sil",
  "8713": " crocodiles",
  "8714": " clerk",
  "8715": " scram",
  "8716": " attempt",
  "8717": " Nancy",
  "8718": "water",
  "8719": "Ahoy",
  "8720": " messed",
  "8721": " example",
  "8722": " dial",
  "8723": " Min",
  "8724": " Kay",
  "8725": " De",
  "8726": " Any",
  "8727": "Momma",
  "8728": " hooks",
  "8729": " Jonny",
  "8730": " tops",
  "8731": " chipmunk",
  "8732": " soot",
  "8733": " guarding",
  "8734": " bathed",
  "8735": "raged",
  "8736": " manager",
  "8737": " Tippy",
  "8738": "ortunately",
  "8739": " Microscope",
  "8740": "Friends",
  "8741": "etah",
  "8742": "Snowy",
  "8743": " masterpiece",
  "8744": " Baa",
  "8745": " erasers",
  "8746": " tips",
  "8747": " finishes",
  "8748": " fet",
  "8749": " common",
  "8750": " Tomorrow",
  "8751": "mbers",
  "8752": " trotted",
  "8753": " nibbled",
  "8754": " members",
  "8755": " digs",
  "8756": "People",
  "8757": " kinder",
  "8758": " cheetah",
  "8759": " particularly",
  "8760": " chews",
  "8761": " blond",
  "8762": "ircle",
  "8763": " rips",
  "8764": " beast",
  "8765": "Lizzy",
  "8766": " argument",
  "8767": "ative",
  "8768": " faith",
  "8769": " Helping",
  "8770": " earned",
  "8771": "Anne",
  "8772": " observing",
  "8773": " forgiveness",
  "8774": " Joke",
  "8775": " Cici",
  "8776": "chievous",
  "8777": " instantly",
  "8778": " fishes",
  "8779": " experienced",
  "8780": " curl",
  "8781": " cheaper",
  "8782": " Jumpy",
  "8783": "Rosie",
  "8784": " mischievous",
  "8785": " generosity",
  "8786": " cages",
  "8787": " Twist",
  "8788": "Gr",
  "8789": "Baa",
  "8790": " meowing",
  "8791": " foam",
  "8792": "mered",
  "8793": "Cindy",
  "8794": " stores",
  "8795": " grandd",
  "8796": " Ag",
  "8797": "etchup",
  "8798": " mattered",
  "8799": " teles",
  "8800": " passes",
  "8801": " limp",
  "8802": "Sque",
  "8803": " sleeps",
  "8804": "iolet",
  "8805": " breaths",
  "8806": "ordinary",
  "8807": "ettle",
  "8808": "ending",
  "8809": " trans",
  "8810": " rin",
  "8811": " gasps",
  "8812": " Freddie",
  "8813": "Got",
  "8814": " rumbling",
  "8815": " hatch",
  "8816": " Momma",
  "8817": "over",
  "8818": "abra",
  "8819": " tin",
  "8820": " grassho",
  "8821": " accomplished",
  "8822": " Hopper",
  "8823": "acing",
  "8824": " thump",
  "8825": " telescope",
  "8826": " strum",
  "8827": " smartest",
  "8828": " mats",
  "8829": " whined",
  "8830": " moat",
  "8831": "Gina",
  "8832": " scrambled",
  "8833": " farmers",
  "8834": " Ice",
  "8835": " drip",
  "8836": "Robbie",
  "8837": " syrup",
  "8838": " gardens",
  "8839": " collapsed",
  "8840": " angrily",
  "8841": " More",
  "8842": "ouraged",
  "8843": "idey",
  "8844": " vegg",
  "8845": " styles",
  "8846": " forests",
  "8847": " experiences",
  "8848": " discoveries",
  "8849": "hole",
  "8850": " tor",
  "8851": " medals",
  "8852": " types",
  "8853": " otters",
  "8854": " meaning",
  "8855": " faint",
  "8856": " conqu",
  "8857": " Pig",
  "8858": " Does",
  "8859": "pit",
  "8860": "adabra",
  "8861": "acock",
  "8862": " snapping",
  "8863": " hardest",
  "8864": " fif",
  "8865": "ering",
  "8866": " movements",
  "8867": " expression",
  "8868": " surv",
  "8869": " chilly",
  "8870": " bubbly",
  "8871": " affect",
  "8872": "Pinky",
  "8873": " vests",
  "8874": " unfair",
  "8875": " court",
  "8876": "Whenever",
  "8877": " toothbrush",
  "8878": " scores",
  "8879": " extraordinary",
  "8880": "Never",
  "8881": " attitude",
  "8882": " vibr",
  "8883": " horri",
  "8884": " bluebird",
  "8885": " Monkey",
  "8886": "mel",
  "8887": "lls",
  "8888": "Mo",
  "8889": " spears",
  "8890": " ketchup",
  "8891": " Berry",
  "8892": "Mother",
  "8893": " sooner",
  "8894": " grasshopper",
  "8895": " behaviour",
  "8896": "Karen",
  "8897": " patches",
  "8898": " habit",
  "8899": "yd",
  "8900": "erts",
  "8901": " pokes",
  "8902": " momma",
  "8903": " afar",
  "8904": " Ashley",
  "8905": "lo",
  "8906": "ieves",
  "8907": "Jacob",
  "8908": " thicker",
  "8909": " scri",
  "8910": " Friend",
  "8911": "Jon",
  "8912": " squeezes",
  "8913": " slithered",
  "8914": " shrunk",
  "8915": " classmates",
  "8916": " Terry",
  "8917": " Fle",
  "8918": " icky",
  "8919": " prickly",
  "8920": " glittering",
  "8921": " expert",
  "8922": " topp",
  "8923": " kneeling",
  "8924": " announced",
  "8925": " Super",
  "8926": " Riri",
  "8927": "elling",
  "8928": " peacock",
  "8929": " marking",
  "8930": "ctric",
  "8931": " costs",
  "8932": " Cally",
  "8933": " Achoo",
  "8934": " zigzags",
  "8935": " watermel",
  "8936": " thieves",
  "8937": " skirts",
  "8938": " jumper",
  "8939": " hood",
  "8940": " acts",
  "8941": " Zog",
  "8942": " App",
  "8943": " wolves",
  "8944": " Swim",
  "8945": " Cloud",
  "8946": "Papa",
  "8947": " thumbs",
  "8948": " squeaky",
  "8949": " concer",
  "8950": " cocoon",
  "8951": " woodcut",
  "8952": " boards",
  "8953": " Eliza",
  "8954": " Becky",
  "8955": " servant",
  "8956": "idence",
  "8957": "affle",
  "8958": " cheating",
  "8959": " Jason",
  "8960": "bu",
  "8961": " trading",
  "8962": " raking",
  "8963": "cat",
  "8964": "Jessie",
  "8965": " explaining",
  "8966": " Eric",
  "8967": "rick",
  "8968": " tidied",
  "8969": " biscuit",
  "8970": " lunchtime",
  "8971": " luckily",
  "8972": " Ac",
  "8973": "Frog",
  "8974": " Puffy",
  "8975": " spilling",
  "8976": " Day",
  "8977": "Fire",
  "8978": " transform",
  "8979": " desserts",
  "8980": " Use",
  "8981": " Maddy",
  "8982": " Daniel",
  "8983": " Animal",
  "8984": "…",
  "8985": "ror",
  "8986": "anced",
  "8987": " Mine",
  "8988": " Still",
  "8989": " Gill",
  "8990": "rough",
  "8991": "amma",
  "8992": " messages",
  "8993": " mirac",
  "8994": " Captain",
  "8995": "idy",
  "8996": " windowsill",
  "8997": " chill",
  "8998": " beating",
  "8999": " Tammy",
  "9000": " Lung",
  "9001": " Gilly",
  "9002": "oot",
  "9003": " seeking",
  "9004": " actor",
  "9005": " Rainbow",
  "9006": " Lina",
  "9007": " William",
  "9008": "sess",
  "9009": "its",
  "9010": " Math",
  "9011": "pril",
  "9012": "Any",
  "9013": " foreshadow",
  "9014": "war",
  "9015": "acles",
  "9016": "Bluey",
  "9017": " leans",
  "9018": " Step",
  "9019": " Pinch",
  "9020": " Hi",
  "9021": "racadabra",
  "9022": "Freeze",
  "9023": "Bounce",
  "9024": " watermelon",
  "9025": " hissing",
  "9026": " flashing",
  "9027": " dev",
  "9028": " cloths",
  "9029": " Tiger",
  "9030": " Monster",
  "9031": " Frankie",
  "9032": "pop",
  "9033": " winding",
  "9034": " positive",
  "9035": " funn",
  "9036": " discouraged",
  "9037": " Wil",
  "9038": " woodcutter",
  "9039": " forts",
  "9040": " dripped",
  "9041": " compete",
  "9042": " teapot",
  "9043": " pressing",
  "9044": " disagreeing",
  "9045": "icking",
  "9046": " glimmering",
  "9047": " veggies",
  "9048": " trusts",
  "9049": " tidying",
  "9050": " kangaroos",
  "9051": " Peep",
  "9052": " tempted",
  "9053": " landing",
  "9054": " Flora",
  "9055": " dock",
  "9056": " shallow",
  "9057": " overw",
  "9058": " formed",
  "9059": "eling",
  "9060": " rack",
  "9061": " fade",
  "9062": " Tooth",
  "9063": "flowers",
  "9064": " worst",
  "9065": " electric",
  "9066": " cops",
  "9067": "Nothing",
  "9068": " apology",
  "9069": "iving",
  "9070": "creams",
  "9071": "ai",
  "9072": " sleds",
  "9073": " Silver",
  "9074": " Life",
  "9075": "upid",
  "9076": " comets",
  "9077": " ass",
  "9078": "Owl",
  "9079": " sav",
  "9080": " Shark",
  "9081": " Mag",
  "9082": " Jelly",
  "9083": "Bug",
  "9084": " situations",
  "9085": " papa",
  "9086": " officers",
  "9087": " conversation",
  "9088": " 4",
  "9089": "Rain",
  "9090": " Roger",
  "9091": " Charlotte",
  "9092": "storm",
  "9093": "aye",
  "9094": " suns",
  "9095": " ding",
  "9096": "”,",
  "9097": " zips",
  "9098": " structures",
  "9099": " scurrying",
  "9100": " pizzas",
  "9101": " overwhel",
  "9102": " miller",
  "9103": " Butter",
  "9104": " granddaughter",
  "9105": " foggy",
  "9106": " Olivia",
  "9107": " Hurry",
  "9108": " Amber",
  "9109": "Zoe",
  "9110": " Janey",
  "9111": " webs",
  "9112": " deserved",
  "9113": "Rabbit",
  "9114": " opportunity",
  "9115": " cubs",
  "9116": " Yummy",
  "9117": " Spidey",
  "9118": " Sasha",
  "9119": " Mixie",
  "9120": " Buster",
  "9121": " snorted",
  "9122": " rhino",
  "9123": " differences",
  "9124": " Gold",
  "9125": " quacking",
  "9126": " Tell",
  "9127": "ifully",
  "9128": "ended",
  "9129": "Fifi",
  "9130": " heaven",
  "9131": " Birds",
  "9132": " unlo",
  "9133": " levers",
  "9134": " inchworm",
  "9135": " inter",
  "9136": " approach",
  "9137": " Tyler",
  "9138": "ssess",
  "9139": " seagulls",
  "9140": " possess",
  "9141": " cooperate",
  "9142": " Rufus",
  "9143": " Felix",
  "9144": " Boom",
  "9145": "welcome",
  "9146": "sers",
  "9147": "ragon",
  "9148": "of",
  "9149": "?”.",
  "9150": "andra",
  "9151": " pose",
  "9152": " disappointment",
  "9153": " Smoke",
  "9154": "ocular",
  "9155": " speaks",
  "9156": " sneaks",
  "9157": "snap",
  "9158": " binocular",
  "9159": " artwork",
  "9160": " surfed",
  "9161": " scowl",
  "9162": " answering",
  "9163": " Snake",
  "9164": " shortcut",
  "9165": " Grand",
  "9166": " sipped",
  "9167": " robin",
  "9168": " dep",
  "9169": "Climb",
  "9170": " arrest",
  "9171": " Inky",
  "9172": "ssy",
  "9173": " unwrapped",
  "9174": " ribbit",
  "9175": " reun",
  "9176": " amused",
  "9177": " Amanda",
  "9178": "ugar",
  "9179": " repeats",
  "9180": " pepperoni",
  "9181": " applause",
  "9182": " keyhole",
  "9183": " checkout",
  "9184": " Mae",
  "9185": " Cars",
  "9186": "Lia",
  "9187": "Deal",
  "9188": " visitor",
  "9189": " striking",
  "9190": " puppets",
  "9191": " paddling",
  "9192": "Eat",
  "9193": " unz",
  "9194": " croaked",
  "9195": " attacked",
  "9196": " Circle",
  "9197": "orsie",
  "9198": " spooky",
  "9199": " Otto",
  "9200": " Gus",
  "9201": "Each",
  "9202": " groaned",
  "9203": " beautifully",
  "9204": " Brian",
  "9205": "ili",
  "9206": "gar",
  "9207": "cidents",
  "9208": " swimsuits",
  "9209": " consider",
  "9210": " checking",
  "9211": "uses",
  "9212": " Yellow",
  "9213": "jest",
  "9214": " waters",
  "9215": " groom",
  "9216": " Squeak",
  "9217": " Slinky",
  "9218": "yle",
  "9219": "Jenn",
  "9220": " invent",
  "9221": "Luke",
  "9222": " nets",
  "9223": " exams",
  "9224": "otion",
  "9225": "ets",
  "9226": " drying",
  "9227": " Rebecca",
  "9228": "udy",
  "9229": "artin",
  "9230": "agine",
  "9231": " shrugs",
  "9232": " lump",
  "9233": " Auntie",
  "9234": "sie",
  "9235": "lest",
  "9236": " sobbing",
  "9237": " shyly",
  "9238": " shoots",
  "9239": " honks",
  "9240": " heels",
  "9241": " cheerfully",
  "9242": " Since",
  "9243": "hny",
  "9244": "esses",
  "9245": " shh",
  "9246": " chin",
  "9247": "anish",
  "9248": " whimpered",
  "9249": " healthier",
  "9250": " hangs",
  "9251": "icious",
  "9252": "Milo",
  "9253": " Mus",
  "9254": " caterpillars",
  "9255": "izzes",
  "9256": "Slowly",
  "9257": " squinted",
  "9258": " magnifying",
  "9259": " fries",
  "9260": " Ratty",
  "9261": " fascinating",
  "9262": " blamed",
  "9263": " Find",
  "9264": "lers",
  "9265": "ulpture",
  "9266": "ching",
  "9267": " sculpture",
  "9268": " frustration",
  "9269": " Tip",
  "9270": "ouched",
  "9271": " shimmering",
  "9272": " Penelope",
  "9273": "eat",
  "9274": " poss",
  "9275": " Peace",
  "9276": "edic",
  "9277": "Sharing",
  "9278": " suck",
  "9279": " pleas",
  "9280": " numbered",
  "9281": " nibble",
  "9282": " Waffle",
  "9283": "othy",
  "9284": "ibbles",
  "9285": "ellie",
  "9286": "amil",
  "9287": " flowing",
  "9288": " baa",
  "9289": "hings",
  "9290": "Pepper",
  "9291": " raked",
  "9292": " grumbled",
  "9293": " Off",
  "9294": "that",
  "9295": "Bubbles",
  "9296": " builder",
  "9297": "racted",
  "9298": " swaying",
  "9299": " petting",
  "9300": " guards",
  "9301": " facing",
  "9302": " Woolly",
  "9303": " sprinkle",
  "9304": " mysteries",
  "9305": " details",
  "9306": " Har",
  "9307": "sey",
  "9308": " snort",
  "9309": " flock",
  "9310": " enemy",
  "9311": " Boat",
  "9312": " textures",
  "9313": " tablet",
  "9314": " goodies",
  "9315": " Curious",
  "9316": " Barry",
  "9317": "Yesterday",
  "9318": " popping",
  "9319": " wildflowers",
  "9320": " stacks",
  "9321": " marve",
  "9322": " fans",
  "9323": " crops",
  "9324": " countries",
  "9325": " Gracie",
  "9326": "how",
  "9327": " knobs",
  "9328": " Tessa",
  "9329": " Seeing",
  "9330": " local",
  "9331": " bushy",
  "9332": " stew",
  "9333": " peeped",
  "9334": " hunting",
  "9335": " drowned",
  "9336": " bowing",
  "9337": " binoculars",
  "9338": " angrier",
  "9339": " Bubu",
  "9340": " maps",
  "9341": " Match",
  "9342": " quizzes",
  "9343": " niece",
  "9344": " moonlight",
  "9345": " Li",
  "9346": " Glow",
  "9347": "Im",
  "9348": " outfits",
  "9349": " Johnson",
  "9350": " Deal",
  "9351": "OO",
  "9352": " whoosh",
  "9353": " weaker",
  "9354": " wrench",
  "9355": " mindful",
  "9356": " crowded",
  "9357": "cycles",
  "9358": "Squ",
  "9359": " endings",
  "9360": " Beef",
  "9361": "oll",
  "9362": " property",
  "9363": " hesitation",
  "9364": " flashes",
  "9365": "amiliar",
  "9366": " unless",
  "9367": " imaginations",
  "9368": " fond",
  "9369": " carts",
  "9370": " boil",
  "9371": " ability",
  "9372": " Oxy",
  "9373": " Andrew",
  "9374": "getic",
  "9375": " glared",
  "9376": " Right",
  "9377": " Accidents",
  "9378": "stand",
  "9379": " unfamiliar",
  "9380": " spaces",
  "9381": " microw",
  "9382": " knit",
  "9383": " haven",
  "9384": " folds",
  "9385": "ths",
  "9386": "saw",
  "9387": "Tuna",
  "9388": " responsibility",
  "9389": " dirtier",
  "9390": " Pet",
  "9391": "bank",
  "9392": " pouch",
  "9393": " microwave",
  "9394": " desks",
  "9395": "ibly",
  "9396": "Bless",
  "9397": " cracker",
  "9398": "rnie",
  "9399": " swapped",
  "9400": " member",
  "9401": " date",
  "9402": " aston",
  "9403": " Oxygen",
  "9404": " Ring",
  "9405": " Ravi",
  "9406": "lt",
  "9407": "free",
  "9408": "Want",
  "9409": "Cra",
  "9410": " whine",
  "9411": " softened",
  "9412": " rebu",
  "9413": " doorstep",
  "9414": " disappearing",
  "9415": " Peggy",
  "9416": " Helen",
  "9417": " Bun",
  "9418": " quacks",
  "9419": " natur",
  "9420": " Chip",
  "9421": "scar",
  "9422": " writer",
  "9423": " listener",
  "9424": " Too",
  "9425": " Fix",
  "9426": " priv",
  "9427": " blushed",
  "9428": " Spicy",
  "9429": "venir",
  "9430": " palms",
  "9431": " noticing",
  "9432": "upt",
  "9433": "repe",
  "9434": "poison",
  "9435": " souvenir",
  "9436": " Past",
  "9437": "repeat",
  "9438": "entr",
  "9439": " laws",
  "9440": " disaster",
  "9441": " Tra",
  "9442": " Res",
  "9443": " Jean",
  "9444": " Gabby",
  "9445": "str",
  "9446": "reg",
  "9447": "endant",
  "9448": "Robby",
  "9449": " phones",
  "9450": "ala",
  "9451": "Ava",
  "9452": " confidence",
  "9453": " Coal",
  "9454": " Cut",
  "9455": " Bert",
  "9456": " timid",
  "9457": " stirs",
  "9458": " overwhelmed",
  "9459": "ingly",
  "9460": "Being",
  "9461": " mayor",
  "9462": " flick",
  "9463": "guess",
  "9464": "asmine",
  "9465": "Che",
  "9466": " tugging",
  "9467": " Pretty",
  "9468": " Mole",
  "9469": "lor",
  "9470": " untangle",
  "9471": " satisfa",
  "9472": " owls",
  "9473": " mailing",
  "9474": " injured",
  "9475": "Whose",
  "9476": " satisfaction",
  "9477": " concentr",
  "9478": " White",
  "9479": " Immediately",
  "9480": " Books",
  "9481": "Fly",
  "9482": " March",
  "9483": " Animals",
  "9484": "mers",
  "9485": "Sc",
  "9486": "Mittens",
  "9487": " lim",
  "9488": " Eat",
  "9489": "this",
  "9490": "Mabel",
  "9491": " prank",
  "9492": " Wonder",
  "9493": " Nora",
  "9494": " Bonnie",
  "9495": "Wiggly",
  "9496": " hooves",
  "9497": " Triangle",
  "9498": " Run",
  "9499": " Pot",
  "9500": " Melissa",
  "9501": " Kn",
  "9502": "well",
  "9503": "Jeff",
  "9504": " fixer",
  "9505": " Startled",
  "9506": " Sir",
  "9507": " Clean",
  "9508": " Close",
  "9509": "icate",
  "9510": " snar",
  "9511": " clut",
  "9512": "lish",
  "9513": "bling",
  "9514": "Excited",
  "9515": " skies",
  "9516": " instrument",
  "9517": " Trucky",
  "9518": " capt",
  "9519": " Matilda",
  "9520": " Horsie",
  "9521": " Faye",
  "9522": "adually",
  "9523": " disagre",
  "9524": "iky",
  "9525": " wriggled",
  "9526": " stains",
  "9527": " rinse",
  "9528": " pecks",
  "9529": " creak",
  "9530": " Sleepy",
  "9531": "Susan",
  "9532": " shave",
  "9533": " bumping",
  "9534": " Icy",
  "9535": " Heli",
  "9536": " Crabby",
  "9537": "ulf",
  "9538": "els",
  "9539": " swirl",
  "9540": " ruff",
  "9541": " bending",
  "9542": " Sing",
  "9543": "cessary",
  "9544": "Playing",
  "9545": "Close",
  "9546": " sandpit",
  "9547": " exploration",
  "9548": " chatted",
  "9549": " Scissors",
  "9550": "Make",
  "9551": " rods",
  "9552": " lever",
  "9553": " facts",
  "9554": "Sm",
  "9555": " attaching",
  "9556": " Candy",
  "9557": " fooled",
  "9558": " burger",
  "9559": " Bro",
  "9560": " glows",
  "9561": " concerned",
  "9562": " clearly",
  "9563": "Maya",
  "9564": " salon",
  "9565": " reversing",
  "9566": " lava",
  "9567": " compan",
  "9568": " certainly",
  "9569": "Wally",
  "9570": " smelt",
  "9571": " motorcycles",
  "9572": " fetched",
  "9573": " circ",
  "9574": " troll",
  "9575": " tunes",
  "9576": " sometime",
  "9577": " prod",
  "9578": " oldest",
  "9579": " fireflies",
  "9580": "Ring",
  "9581": " kissing",
  "9582": " challenges",
  "9583": " blonde",
  "9584": "Kayla",
  "9585": " warmed",
  "9586": " Bobbie",
  "9587": " unlocking",
  "9588": " natural",
  "9589": " differently",
  "9590": " bound",
  "9591": " Lots",
  "9592": "urple",
  "9593": "sa",
  "9594": "erg",
  "9595": "Tara",
  "9596": "Dino",
  "9597": "Abracadabra",
  "9598": " rubb",
  "9599": " riverbank",
  "9600": " jig",
  "9601": " detect",
  "9602": " cutter",
  "9603": " cupcake",
  "9604": " conquered",
  "9605": " hates",
  "9606": " alley",
  "9607": " Flap",
  "9608": "sorry",
  "9609": " swirls",
  "9610": " sends",
  "9611": " realise",
  "9612": " Open",
  "9613": " Flopsy",
  "9614": "ani",
  "9615": "Julia",
  "9616": "Isn",
  "9617": " wiggling",
  "9618": " sensation",
  "9619": " munched",
  "9620": " banging",
  "9621": " Cammy",
  "9622": " toppings",
  "9623": " hippos",
  "9624": " fist",
  "9625": " clips",
  "9626": " Reliable",
  "9627": "Doctor",
  "9628": " swayed",
  "9629": " stings",
  "9630": " robe",
  "9631": " miracle",
  "9632": " halves",
  "9633": " brakes",
  "9634": " Greeny",
  "9635": "Hope",
  "9636": "Fish",
  "9637": " survive",
  "9638": " ostriches",
  "9639": " Pink",
  "9640": " Climb",
  "9641": "ula",
  "9642": "keepers",
  "9643": "bert",
  "9644": "Michael",
  "9645": " torto",
  "9646": " otherwise",
  "9647": " embra",
  "9648": " crushed",
  "9649": " bubbling",
  "9650": " Di",
  "9651": " tents",
  "9652": " Looking",
  "9653": " repairing",
  "9654": " Of",
  "9655": "change",
  "9656": " vinegar",
  "9657": " stretchy",
  "9658": " rubbish",
  "9659": " lizards",
  "9660": " Working",
  "9661": " Flicker",
  "9662": " passenger",
  "9663": " Ed",
  "9664": "aste",
  "9665": "Many",
  "9666": " vibrant",
  "9667": " tortoise",
  "9668": " pounced",
  "9669": " Which",
  "9670": "Suzie",
  "9671": " scene",
  "9672": " Rh",
  "9673": " Grump",
  "9674": "gr",
  "9675": " mooed",
  "9676": " glided",
  "9677": " desperately",
  "9678": " bas",
  "9679": " snip",
  "9680": " poop",
  "9681": " majest",
  "9682": " intently",
  "9683": " copied",
  "9684": " calmer",
  "9685": " Sundays",
  "9686": " Lightning",
  "9687": "rap",
  "9688": " woken",
  "9689": " twel",
  "9690": " rags",
  "9691": " judges",
  "9692": " joyfully",
  "9693": " jing",
  "9694": " coolest",
  "9695": " Per",
  "9696": "smelling",
  "9697": " lectures",
  "9698": " glob",
  "9699": " Jody",
  "9700": "lyn",
  "9701": "isible",
  "9702": " hips",
  "9703": " cousins",
  "9704": " astonished",
  "9705": " capes",
  "9706": " Outside",
  "9707": "uno",
  "9708": "Eww",
  "9709": " successfully",
  "9710": " speaker",
  "9711": " reunited",
  "9712": " invisible",
  "9713": " guesses",
  "9714": " gooey",
  "9715": " arrives",
  "9716": "why",
  "9717": " twelve",
  "9718": " bats",
  "9719": "urity",
  "9720": "Mikey",
  "9721": " goodness",
  "9722": " computers",
  "9723": " chatting",
  "9724": " Carla",
  "9725": "nded",
  "9726": "mie",
  "9727": " stacking",
  "9728": " snowflake",
  "9729": "istory",
  "9730": " reappeared",
  "9731": " racer",
  "9732": " pounds",
  "9733": " parks",
  "9734": " desperate",
  "9735": " companion",
  "9736": " commun",
  "9737": "bed",
  "9738": "Zigzag",
  "9739": "Ol",
  "9740": " luckiest",
  "9741": " level",
  "9742": " dou",
  "9743": " ank",
  "9744": " tale",
  "9745": " stomachs",
  "9746": " sells",
  "9747": " gall",
  "9748": " dumb",
  "9749": " crickets",
  "9750": " Sugar",
  "9751": "Nick",
  "9752": " winds",
  "9753": " sus",
  "9754": " gates",
  "9755": " disobeyed",
  "9756": " disagreement",
  "9757": " Steven",
  "9758": "hile",
  "9759": "More",
  "9760": " pearls",
  "9761": " hoses",
  "9762": " crisp",
  "9763": " awhile",
  "9764": " Whee",
  "9765": "ites",
  "9766": "Lou",
  "9767": " soda",
  "9768": " popsic",
  "9769": " loyalty",
  "9770": " Orange",
  "9771": "Linda",
  "9772": " tongues",
  "9773": " Rosa",
  "9774": "usion",
  "9775": "rent",
  "9776": " rider",
  "9777": " CD",
  "9778": "Ooh",
  "9779": " Black",
  "9780": "pan",
  "9781": " surely",
  "9782": " abo",
  "9783": " Law",
  "9784": " Annabelle",
  "9785": "colored",
  "9786": " occasion",
  "9787": " bund",
  "9788": "rum",
  "9789": "izza",
  "9790": "dog",
  "9791": "!’",
  "9792": " stun",
  "9793": " guitars",
  "9794": " chicks",
  "9795": "chief",
  "9796": " separating",
  "9797": " seashe",
  "9798": " rebuild",
  "9799": " intelligence",
  "9800": " alligators",
  "9801": " aboard",
  "9802": " Raven",
  "9803": " Iron",
  "9804": " April",
  "9805": "Found",
  "9806": " croak",
  "9807": " creep",
  "9808": " Winky",
  "9809": " Violet",
  "9810": "aids",
  "9811": "Something",
  "9812": "Catch",
  "9813": " learner",
  "9814": " caution",
  "9815": " cuc",
  "9816": " Old",
  "9817": " Care",
  "9818": "solut",
  "9819": " whines",
  "9820": " spiky",
  "9821": " revealing",
  "9822": " rins",
  "9823": " Uni",
  "9824": "working",
  "9825": " tickling",
  "9826": " explod",
  "9827": " escap",
  "9828": " Settle",
  "9829": " underwater",
  "9830": " globe",
  "9831": " crouched",
  "9832": " Roar",
  "9833": " Coby",
  "9834": " Ba",
  "9835": "udge",
  "9836": "everse",
  "9837": "anne",
  "9838": "!'.",
  "9839": " prog",
  "9840": " blooms",
  "9841": " appearance",
  "9842": " ''",
  "9843": "urricane",
  "9844": "stop",
  "9845": "seph",
  "9846": "ifer",
  "9847": "fived",
  "9848": " strokes",
  "9849": " leaking",
  "9850": " hatched",
  "9851": " guardian",
  "9852": " Socky",
  "9853": "ealing",
  "9854": "arning",
  "9855": " zookeepers",
  "9856": " tant",
  "9857": " routine",
  "9858": " persistence",
  "9859": " doves",
  "9860": "Snap",
  "9861": "Sleep",
  "9862": "Chicky",
  "9863": " taps",
  "9864": " squashes",
  "9865": " quilt",
  "9866": " painful",
  "9867": " lighting",
  "9868": " blame",
  "9869": " admit",
  "9870": " Lu",
  "9871": "net",
  "9872": "Toys",
  "9873": "Ahh",
  "9874": " tempting",
  "9875": " shattered",
  "9876": " ripp",
  "9877": " mold",
  "9878": " deeply",
  "9879": " Puff",
  "9880": "ggles",
  "9881": "Three",
  "9882": "Ralph",
  "9883": "Matt",
  "9884": "Jan",
  "9885": " throne",
  "9886": " squirted",
  "9887": " security",
  "9888": " peeks",
  "9889": " electricity",
  "9890": " centre",
  "9891": " burgers",
  "9892": " Spin",
  "9893": "emon",
  "9894": "con",
  "9895": " realizing",
  "9896": " cooks",
  "9897": " allowing",
  "9898": " Liam",
  "9899": "ushes",
  "9900": "orth",
  "9901": "oss",
  "9902": "dest",
  "9903": "cker",
  "9904": "Jessica",
  "9905": " lar",
  "9906": " exchange",
  "9907": " chopping",
  "9908": "Share",
  "9909": "Sophia",
  "9910": " sweetly",
  "9911": " Race",
  "9912": " Quickly",
  "9913": " Alf",
  "9914": "vering",
  "9915": " sweeter",
  "9916": " rinsed",
  "9917": " glittered",
  "9918": "isapp",
  "9919": "Zero",
  "9920": "Sw",
  "9921": " melts",
  "9922": " melody",
  "9923": " goggles",
  "9924": " furious",
  "9925": " energetic",
  "9926": " defeated",
  "9927": " builders",
  "9928": " Inch",
  "9929": "asy",
  "9930": " waded",
  "9931": " tantrum",
  "9932": " sniffled",
  "9933": " chooses",
  "9934": " Otherwise",
  "9935": " Cats",
  "9936": " Comet",
  "9937": " container",
  "9938": " competing",
  "9939": " Giant",
  "9940": "eremy",
  "9941": "bang",
  "9942": " Sharp",
  "9943": " Mila",
  "9944": "arted",
  "9945": " undone",
  "9946": " seriously",
  "9947": " protection",
  "9948": " larger",
  "9949": " lull",
  "9950": " hudd",
  "9951": " attempts",
  "9952": " Rara",
  "9953": " Park",
  "9954": " Duke",
  "9955": "Shoo",
  "9956": "Lizzie",
  "9957": " tossing",
  "9958": " helicopters",
  "9959": " cooed",
  "9960": " cluck",
  "9961": " buckles",
  "9962": " Whale",
  "9963": " Pinchy",
  "9964": " Cher",
  "9965": "Sweet",
  "9966": " Tears",
  "9967": " Smo",
  "9968": " Over",
  "9969": "solutely",
  "9970": "Still",
  "9971": "Squeaky",
  "9972": " hummed",
  "9973": " dedic",
  "9974": " courageous",
  "9975": " Ma",
  "9976": " Hor",
  "9977": " Din",
  "9978": "Maddy",
  "9979": "Everything",
  "9980": "Curious",
  "9981": " racers",
  "9982": " patients",
  "9983": " muster",
  "9984": " god",
  "9985": " deserves",
  "9986": " aloud",
  "9987": " Things",
  "9988": "aps",
  "9989": "Use",
  "9990": " Squee",
  "9991": " Dragon",
  "9992": " tours",
  "9993": " meets",
  "9994": " marvel",
  "9995": " Rusty",
  "9996": " Liza",
  "9997": " Jet",
  "9998": "Froggy",
  "9999": " wrapper"
}